{
  "version": "1.0",
  "truncation": null,
  "padding": null,
  "added_tokens": [
    {
      "id": 0,
      "content": "<unk>",
      "single_word": false,
      "lstrip": false,
      "rstrip": false,
      "normalized": false,
      "special": true
    },
    {
      "id": 1,
      "content": "<pad>",
      "single_word": false,
      "lstrip": false,
      "rstrip": false,
      "normalized": false,
      "special": true
    }
  ],
  "normalizer": null,
  "pre_tokenizer": {
    "type": "ByteLevel",
    "add_prefix_space": false,
    "trim_offsets": true,
    "use_regex": true
  },
  "post_processor": null,
  "decoder": {
    "type": "ByteLevel",
    "add_prefix_space": true,
    "trim_offsets": true,
    "use_regex": true
  },
  "model": {
    "type": "BPE",
    "dropout": null,
    "unk_token": "<unk>",
    "continuing_subword_prefix": null,
    "end_of_word_suffix": null,
    "fuse_unk": false,
    "byte_fallback": false,
    "ignore_merges": false,
    "vocab": {
      "<unk>": 0,
      "<pad>": 1,
      "!": 2,
      "\"": 3,
      "#": 4,
      "$": 5,
      "%": 6,
      "&": 7,
      "'": 8,
      "(": 9,
      ")": 10,
      "*": 11,
      "+": 12,
      ",": 13,
      "-": 14,
      ".": 15,
      "/": 16,
      "0": 17,
      "1": 18,
      "2": 19,
      "3": 20,
      "4": 21,
      "5": 22,
      "6": 23,
      "7": 24,
      "8": 25,
      "9": 26,
      ":": 27,
      ";": 28,
      "<": 29,
      "=": 30,
      ">": 31,
      "?": 32,
      "@": 33,
      "A": 34,
      "B": 35,
      "C": 36,
      "D": 37,
      "E": 38,
      "F": 39,
      "G": 40,
      "H": 41,
      "I": 42,
      "J": 43,
      "K": 44,
      "L": 45,
      "M": 46,
      "N": 47,
      "O": 48,
      "P": 49,
      "Q": 50,
      "R": 51,
      "S": 52,
      "T": 53,
      "U": 54,
      "V": 55,
      "W": 56,
      "X": 57,
      "Y": 58,
      "Z": 59,
      "[": 60,
      "\\": 61,
      "]": 62,
      "^": 63,
      "_": 64,
      "`": 65,
      "a": 66,
      "b": 67,
      "c": 68,
      "d": 69,
      "e": 70,
      "f": 71,
      "g": 72,
      "h": 73,
      "i": 74,
      "j": 75,
      "k": 76,
      "l": 77,
      "m": 78,
      "n": 79,
      "o": 80,
      "p": 81,
      "q": 82,
      "r": 83,
      "s": 84,
      "t": 85,
      "u": 86,
      "v": 87,
      "w": 88,
      "x": 89,
      "y": 90,
      "z": 91,
      "{": 92,
      "|": 93,
      "}": 94,
      "~": 95,
      "¡": 96,
      "¢": 97,
      "£": 98,
      "¤": 99,
      "¥": 100,
      "¦": 101,
      "§": 102,
      "¨": 103,
      "©": 104,
      "ª": 105,
      "«": 106,
      "¬": 107,
      "®": 108,
      "¯": 109,
      "°": 110,
      "±": 111,
      "²": 112,
      "³": 113,
      "´": 114,
      "µ": 115,
      "¶": 116,
      "·": 117,
      "¸": 118,
      "¹": 119,
      "º": 120,
      "»": 121,
      "¼": 122,
      "½": 123,
      "¾": 124,
      "¿": 125,
      "À": 126,
      "Á": 127,
      "Â": 128,
      "Ã": 129,
      "Ä": 130,
      "Å": 131,
      "Æ": 132,
      "Ç": 133,
      "È": 134,
      "É": 135,
      "Ê": 136,
      "Ë": 137,
      "Ì": 138,
      "Í": 139,
      "Î": 140,
      "Ï": 141,
      "Ð": 142,
      "Ñ": 143,
      "Ò": 144,
      "Ó": 145,
      "Ô": 146,
      "Õ": 147,
      "Ö": 148,
      "×": 149,
      "Ø": 150,
      "Ù": 151,
      "Ú": 152,
      "Û": 153,
      "Ü": 154,
      "Ý": 155,
      "Þ": 156,
      "ß": 157,
      "à": 158,
      "á": 159,
      "â": 160,
      "ã": 161,
      "ä": 162,
      "å": 163,
      "æ": 164,
      "ç": 165,
      "è": 166,
      "é": 167,
      "ê": 168,
      "ë": 169,
      "ì": 170,
      "í": 171,
      "î": 172,
      "ï": 173,
      "ð": 174,
      "ñ": 175,
      "ò": 176,
      "ó": 177,
      "ô": 178,
      "õ": 179,
      "ö": 180,
      "÷": 181,
      "ø": 182,
      "ù": 183,
      "ú": 184,
      "û": 185,
      "ü": 186,
      "ý": 187,
      "þ": 188,
      "ÿ": 189,
      "Ā": 190,
      "ā": 191,
      "Ă": 192,
      "ă": 193,
      "Ą": 194,
      "ą": 195,
      "Ć": 196,
      "ć": 197,
      "Ĉ": 198,
      "ĉ": 199,
      "Ċ": 200,
      "ċ": 201,
      "Č": 202,
      "č": 203,
      "Ď": 204,
      "ď": 205,
      "Đ": 206,
      "đ": 207,
      "Ē": 208,
      "ē": 209,
      "Ĕ": 210,
      "ĕ": 211,
      "Ė": 212,
      "ė": 213,
      "Ę": 214,
      "ę": 215,
      "Ě": 216,
      "ě": 217,
      "Ĝ": 218,
      "ĝ": 219,
      "Ğ": 220,
      "ğ": 221,
      "Ġ": 222,
      "ġ": 223,
      "Ģ": 224,
      "ģ": 225,
      "Ĥ": 226,
      "ĥ": 227,
      "Ħ": 228,
      "ħ": 229,
      "Ĩ": 230,
      "ĩ": 231,
      "Ī": 232,
      "ī": 233,
      "Ĭ": 234,
      "ĭ": 235,
      "Į": 236,
      "į": 237,
      "İ": 238,
      "ı": 239,
      "Ĳ": 240,
      "ĳ": 241,
      "Ĵ": 242,
      "ĵ": 243,
      "Ķ": 244,
      "ķ": 245,
      "ĸ": 246,
      "Ĺ": 247,
      "ĺ": 248,
      "Ļ": 249,
      "ļ": 250,
      "Ľ": 251,
      "ľ": 252,
      "Ŀ": 253,
      "ŀ": 254,
      "Ł": 255,
      "ł": 256,
      "Ń": 257,
      "à®": 258,
      "à²": 259,
      "à¤": 260,
      "à¯": 261,
      "à³": 262,
      "à¥": 263,
      "Ġà¤": 264,
      "à¯į": 265,
      "Ġà®": 266,
      "Ġà²": 267,
      "à¯ģ": 268,
      "à®ķ": 269,
      "à³į": 270,
      "à²¿": 271,
      "à®¿": 272,
      "à¤¾": 273,
      "à¥ĩ": 274,
      "à³ģ": 275,
      "à®¤": 276,
      "à²¨": 277,
      "à³Ĩ": 278,
      "à¤°": 279,
      "à²¾": 280,
      "à²°": 281,
      "à®Ł": 282,
      "à²¦": 283,
      "à®¾": 284,
      "à®®": 285,
      "à®°": 286,
      "à²¤": 287,
      "he": 288,
      "à®²": 289,
      "à¥į": 290,
      "à²Ĺ": 291,
      "à¥Ģ": 292,
      "Ġt": 293,
      "à®©": 294,
      "à²²": 295,
      "à®µ": 296,
      "à¤Ĥ": 297,
      "Ġà¤ķ": 298,
      "à¤¨": 299,
      "à¯Ī": 300,
      "à¤¿": 301,
      "à®¯": 302,
      "à®³": 303,
      "Ġa": 304,
      "à¤¤": 305,
      "à¤ķ": 306,
      "à¥¤": 307,
      "à²µ": 308,
      "à²Ĥ": 309,
      "à®±": 310,
      "à¥ĭ": 311,
      "er": 312,
      "à¤²": 313,
      "à¤¯": 314,
      "Ġà¤¹": 315,
      "à®¨": 316,
      "in": 317,
      "Ġà¤¸": 318,
      "à²¯": 319,
      "à¤¹": 320,
      "à²¸": 321,
      "à²Ł": 322,
      "à¥Ī": 323,
      "à®ª": 324,
      "Ġthe": 325,
      "Ġà¤®": 326,
      "à¯į.": 327,
      "à²³": 328,
      "Ġà®®": 329,
      "ed": 330,
      "es": 331,
      "is": 332,
      "à¯Ĩ": 333,
      "Ġs": 334,
      "à¤¸": 335,
      "Ġà¤ª": 336,
      "à²®": 337,
      "Ġà²¨": 338,
      "or": 339,
      "à¤®": 340,
      "The": 341,
      "on": 342,
      "à²ķ": 343,
      "Ġà®ķ": 344,
      "à®ķà®³": 345,
      "Ġà¤¬": 346,
      "à²¡": 347,
      "à³Ĩ.": 348,
      "Ġw": 349,
      "Ġc": 350,
      "Ġà®µ": 351,
      "en": 352,
      "à¤¼": 353,
      "à¤ľ": 354,
      "Ġà®¤": 355,
      "Ġà®ļ": 356,
      "à¤Ł": 357,
      "à®£": 358,
      "à¯ĩ": 359,
      "Ġà²®": 360,
      "à¥ĩà¤Ĥ": 361,
      "Ġf": 362,
      "à¥ģ": 363,
      "Ġà®ª": 364,
      "Ġà²¸": 365,
      "ar": 366,
      "Ġn": 367,
      "à¤ª": 368,
      "à¤µ": 369,
      "Ġà¤¦": 370,
      "à³ĭ": 371,
      "Ġà¤¨": 372,
      "Ġb": 373,
      "Ġm": 374,
      "Ġo": 375,
      "Ġà®¨": 376,
      "an": 377,
      "Ġd": 378,
      "Ġr": 379,
      "à²ļ": 380,
      "à¤¦": 381,
      "Ġà®ħ": 382,
      "Ġà²ķ": 383,
      "al": 384,
      "Ġe": 385,
      "Ġà²¤": 386,
      "Ġà²¹": 387,
      "as": 388,
      "ou": 389,
      "Ġh": 390,
      "à¤ı": 391,
      "à¤Ĺ": 392,
      "at": 393,
      "Ġl": 394,
      "à®ļ": 395,
      "Ġà®ĩ": 396,
      "ing": 397,
      "Ġne": 398,
      "à®Ļ": 399,
      "à²¹": 400,
      "Ġà²¬": 401,
      "it": 402,
      "Ġà¤ħ": 403,
      "Ġth": 404,
      "à²¬": 405,
      "à¤¬": 406,
      "à³Ģ": 407,
      "Ġà¤°": 408,
      "Ġà¤²": 409,
      "Ġà²ª": 410,
      "à¯ģ.": 411,
      "à³ģ.": 412,
      "à¤ĩ": 413,
      "à¥Īà¤Ĥ": 414,
      "à¥Īà¥¤": 415,
      "à®ħ": 416,
      "à³ĩ": 417,
      "à³Ĭ": 418,
      "ay": 419,
      "ec": 420,
      "ig": 421,
      "ts": 422,
      "ver": 423,
      "Ġp": 424,
      "à¤Ī": 425,
      "Ġof": 426,
      "ro": 427,
      "Ġà®ĩà®°": 428,
      "il": 429,
      "à¤«": 430,
      "Ġà¤¤": 431,
      "à¤¾à¥¤": 432,
      "à¥ĭà¤Ĥ": 433,
      "à¤ªà¤¨": 434,
      "Ġnew": 435,
      "ħà²µ": 436,
      "à®´": 437,
      "à®ĩ": 438,
      "à²ª": 439,
      "à¯Ĥ": 440,
      "à¯Ĭ": 441,
      "à¯ĭ": 442,
      "Ġà®İ": 443,
      "à®ķà®®": 444,
      "à²Ĺà²³": 445,
      "el": 446,
      "ter": 447,
      "Ġy": 448,
      "Ġin": 449,
      "à¥Ĥ": 450,
      "Ġà¤ľ": 451,
      "Ġto": 452,
      "Ġthis": 453,
      "ee": 454,
      "ic": 455,
      "à²ħà²µ": 456,
      "à¤¶": 457,
      "à¤ļ": 458,
      "Ġà¤Ĺ": 459,
      "Ġà²µ": 460,
      "Ġà¤ķà¤°": 461,
      "à®ħà®µ": 462,
      "igh": 463,
      "et": 464,
      "à¤¡": 465,
      "Ġan": 466,
      "à¥Īà¤Ĥà¥¤": 467,
      "Ġà®ī": 468,
      "Ġà²°": 469,
      "Ġà²ĩ": 470,
      "à®ĩà®¨": 471,
      "ve": 472,
      "à¤¼à¥į": 473,
      "Ġres": 474,
      "Ġà¤ħà¤ªà¤¨": 475,
      "ir": 476,
      "ion": 477,
      "ul": 478,
      "ıà¤ķ": 479,
      "à²£": 480,
      "à²Ī": 481,
      "à²ľ": 482,
      "à¯Ģ": 483,
      "Ġà¤µ": 484,
      "Ġà¤¶": 485,
      "Ġà¤ıà¤ķ": 486,
      "Ġà®Ĵ": 487,
      "Ġà²¦": 488,
      "Ġà²Ĺ": 489,
      "à²¿à²Ĥ": 490,
      "à³ģà²Ĥ": 491,
      "à®¤à®¤": 492,
      "à²¨à²Ĺ": 493,
      "à²¦à²²": 494,
      "Ġà¤ªà¤°": 495,
      "à¤¼à¤¾": 496,
      "Ġfor": 497,
      "ain": 498,
      "ear": 499,
      "lo": 500,
      "mp": 501,
      "re": 502,
      "tor": 503,
      "à¤·": 504,
      "Ġà¤ĸ": 505,
      "Ġà¤Ń": 506,
      "ent": 507,
      "Ġbe": 508,
      "à²·": 509,
      "à³Ĥ": 510,
      "Ġà²Ĩ": 511,
      "à®ķà®µ": 512,
      "à²¦à²°": 513,
      "à®©à®ķ": 514,
      "à®©à®®": 515,
      "à®µà®°": 516,
      "à²µà²°": 517,
      "à²¯à²µ": 518,
      "à®ªà®Ł": 519,
      "day": 520,
      "ot": 521,
      "ur": 522,
      "Ġhe": 523,
      "Ġis": 524,
      "Ġon": 525,
      "à¥Ģà¥¤": 526,
      "ers": 527,
      "Ġco": 528,
      "all": 529,
      "Ġex": 530,
      "Ġà¤°à¤¹": 531,
      "ect": 532,
      "ea": 533,
      "oc": 534,
      "un": 535,
      "up": 536,
      "Ġg": 537,
      "Ķà¤°": 538,
      "à²¶": 539,
      "à¤ģ": 540,
      "à¤ĸ": 541,
      "à³Ī": 542,
      "Ġà¤«": 543,
      "Ġà¤Ĩ": 544,
      "Ġà¤ĩ": 545,
      "Ġà¤Ķà¤°": 546,
      "Ġà²İ": 547,
      "Ġà²Ĵ": 548,
      "Ġà²ľ": 549,
      "à²¨à²²": 550,
      "à²°à²¤": 551,
      "à²°à²ķ": 552,
      "à®°à®®": 553,
      "à²¤à²¦": 554,
      "her": 555,
      "à®²à®ķà®®": 556,
      "Ġat": 557,
      "à¤¤à¤°": 558,
      "Ġà®®à®£": 559,
      "Ġst": 560,
      "Ġà²¨à²¨à²Ĺ": 561,
      "Ġà®ķà®Ł": 562,
      "Ġwas": 563,
      "Ġwee": 564,
      "Ġà²®à²¤": 565,
      "Ġà®ħà®±": 566,
      "oun": 567,
      "our": 568,
      "Ġhas": 569,
      "à¤ĩà¤¸": 570,
      "ill": 571,
      "Ġà®İà®©à®ķ": 572,
      "ight": 573,
      "Ġand": 574,
      "Ġà®Ĵà®°": 575,
      "Ġweek": 576,
      "for": 577,
      "ge": 578,
      "ow": 579,
      "ri": 580,
      "ss": 581,
      "ted": 582,
      "us": 583,
      "à¤¥": 584,
      "à¤Ń": 585,
      "à¥ī": 586,
      "Ġà¤¥": 587,
      "Ġà¤ļ": 588,
      "Ġà¤Ł": 589,
      "Ġare": 590,
      "à¤¹à¤°": 591,
      "Ġse": 592,
      "Ġà¤¬à¤¨": 593,
      "Ġwill": 594,
      "end": 595,
      "à¤Łà¤°": 596,
      "à¤µà¤°": 597,
      "and": 598,
      "Ġre": 599,
      "Ġyear": 600,
      "Ġà¤Ĺà¤¯": 601,
      "ults": 602,
      "ounc": 603,
      "âĢ": 604,
      "à®¸": 605,
      "à®İ": 606,
      "Ġà®°": 607,
      "Ġà®Ĩ": 608,
      "Ġà²«": 609,
      "Ġà²ħ": 610,
      "Ġà²ļ": 611,
      "à³įâĢ": 612,
      "à²¿.": 613,
      "à®¤à®®": 614,
      "à²°à²¡": 615,
      "à®Łà®¤": 616,
      "à®©à®¤": 617,
      "à®µà®²à®ķà®®": 618,
      "à®¯à®µ": 619,
      "à®³à®¤": 620,
      "à²µà²¨": 621,
      "à®±à®¤": 622,
      "à²¯à²¨": 623,
      "à²¸à²²": 624,
      "Ġà®ļà®°": 625,
      "Ġà²¸à²°": 626,
      "Ġà²¸à²¹": 627,
      "Ġà®ħà®²": 628,
      "Ġà²ķà²ļ": 629,
      "à®´à®¨": 630,
      "à²Ĺà²³à²¨": 631,
      "à²ħà²µà²¨": 632,
      "à²ħà²µà²³": 633,
      "à®ħà®µà®©": 634,
      "à®ħà®µà®³": 635,
      "à³įâĢĮ": 636,
      "ac": 637,
      "ave": 638,
      "eers": 639,
      "fic": 640,
      "ies": 641,
      "le": 642,
      "ly": 643,
      "les": 644,
      "nounc": 645,
      "pp": 646,
      "pen": 647,
      "ric": 648,
      "ven": 649,
      "xt": 650,
      "à¤Ľ": 651,
      "à¤ł": 652,
      "Ġà¤¡": 653,
      "Ġà¤ĺ": 654,
      "Ġad": 655,
      "Ġal": 656,
      "à¤ķà¤²": 657,
      "à¤¹à¤²": 658,
      "est": 659,
      "Ġsp": 660,
      "Ġà¤ªà¤¹à¤²": 661,
      "ort": 662,
      "Ġà¤¬à¤ľ": 663,
      "Ġch": 664,
      "Ġcit": 665,
      "Ġclo": 666,
      "ark": 667,
      "à¤µà¤¹": 668,
      "Ġbu": 669,
      "Ġmor": 670,
      "Ġopen": 671,
      "any": 672,
      "Ġever": 673,
      "à¤Ĺà¤²": 674,
      "Ġnext": 675,
      "ign": 676,
      "Ġpl": 677,
      "ross": 678,
      "ild": 679,
      "ell": 680,
      "ights": 681,
      "Ġannounc": 682,
      "Ġresults": 683,
      "Ġclos": 684,
      "Ġevery": 685,
      "He": 686,
      "Ple": 687,
      "She": 688,
      "bou": 689,
      "ch": 690,
      "ci": 691,
      "cross": 692,
      "get": 693,
      "hi": 694,
      "hon": 695,
      "im": 696,
      "iver": 697,
      "lect": 698,
      "mit": 699,
      "ning": 700,
      "ol": 701,
      "os": 702,
      "port": 703,
      "sand": 704,
      "th": 705,
      "um": 706,
      "Ġit": 707,
      "Ġve": 708,
      "īà¤¸": 709,
      "à²¥": 710,
      "à²ĸ": 711,
      "à²Ń": 712,
      "à¤£": 713,
      "à¤§": 714,
      "à¤Ŀ": 715,
      "à¥ĥ": 716,
      "Ġà¤¯": 717,
      "Ġà²¶": 718,
      "Ġà²Ī": 719,
      "Ġà²ĸ": 720,
      "à®ķà®°": 721,
      "à®ķà®ª": 722,
      "à¤¾à¤ģ": 723,
      "à®¤à®°": 724,
      "à®¤à®²": 725,
      "à®¤à®©": 726,
      "à®¤à®ķà®®": 727,
      "à®¤à®¯à®µ": 728,
      "à²¨à²¨": 729,
      "à³Ĩà²Ĥ": 730,
      "à²¾?": 731,
      "à²¾à²Ĥ": 732,
      "à²°à²¦": 733,
      "à®Łà®°": 734,
      "à²¦à²¨": 735,
      "à²¦à²¯à²µ": 736,
      "à®¾?": 737,
      "à®®à®¤à®®": 738,
      "à²¤à²ķ": 739,
      "à¥Ģà¤Ĥ": 740,
      "Ġtw": 741,
      "Ġtea": 742,
      "Ġà¤ķà¤Ī": 743,
      "à¯Ī.": 744,
      "à®¯à®¤": 745,
      "Ġapp": 746,
      "Ġabou": 747,
      "Ġacross": 748,
      "à®±à®¨": 749,
      "à¤¯à¤°": 750,
      "Ġà¤¹à¤°": 751,
      "Ġà¤¹à¤«": 752,
      "Ġà¤¸à¤®": 753,
      "Ġà¤¸à¤¬": 754,
      "à²¯à²²": 755,
      "à²¸à²¬": 756,
      "à²Łà²°": 757,
      "ester": 758,
      "à²®à²ķ": 759,
      "Ġà²¨à²Ĺ": 760,
      "Ġà²¨à²®": 761,
      "ong": 762,
      "à²ķà²³": 763,
      "Ġà¤¬à¤¹": 764,
      "à²¡à²µ": 765,
      "Ġwor": 766,
      "Ġwit": 767,
      "Ġà®µà®°": 768,
      "à¤¼à¤¿": 769,
      "à¤ľà¤¹": 770,
      "Ġà®ļà®ķ": 771,
      "à®£à®µ": 772,
      "à¥ĩà¤Ĥà¥¤": 773,
      "Ġfl": 774,
      "Ġà®ªà®³": 775,
      "Ġà²¸à²²": 776,
      "art": 777,
      "Ġnight": 778,
      "à¤ªà¤¯": 779,
      "Ġà¤¦à¤«": 780,
      "Ġà¤¨à¤¯": 781,
      "Ġà¤¨à¤ı": 782,
      "Ġme": 783,
      "Ġmon": 784,
      "Ġmark": 785,
      "Ġà®¨à®Ł": 786,
      "Ġà®¨à®©": 787,
      "Ġdis": 788,
      "Ġà®ħà®Ł": 789,
      "Ġà®ħà®©": 790,
      "Ġà²ķà²³": 791,
      "Ġeven": 792,
      "Ġelect": 793,
      "Ġà²¤à²¨": 794,
      "Ġà²¤à²¡à²µ": 795,
      "Ġà²¹à²µ": 796,
      "ase": 797,
      "ast": 798,
      "ousand": 799,
      "Ġhis": 800,
      "Ġhour": 801,
      "Ġhave": 802,
      "ate": 803,
      "ater": 804,
      "atch": 805,
      "Ġlast": 806,
      "Ġà²¬à²°": 807,
      "Ġthousand": 808,
      "à¤ĩà¤¨": 809,
      "à®ħà®¤": 810,
      "à³Ĭà²Ĥ": 811,
      "ayed": 812,
      "Ġà®ĩà®°à®£": 813,
      "à®ĩà®©": 814,
      "à²ªà²¨": 815,
      "Ġà®İà®Ļ": 816,
      "Ġyou": 817,
      "Ġyour": 818,
      "Ġint": 819,
      "à²ħà²µà²°": 820,
      "à¤¶à¤¨": 821,
      "Ġà¤ķà¤°à¤¨": 822,
      "à®ħà®µà®°": 823,
      "etter": 824,
      "Ġà®īà®³": 825,
      "Ġà®īà®£à®µ": 826,
      "Ġà²ĩà²¦": 827,
      "Ġà¤µà¤ľà¤¹": 828,
      "Ġà¤¶à¤¹à¤°": 829,
      "mpany": 830,
      "Ġbefor": 831,
      "Ġcompany": 832,
      "Ġexp": 833,
      "à²¶à²Ĺà²³à²¨": 834,
      "Ġà²İà²°à²¡": 835,
      "à²°à²ķà²Ł": 836,
      "use": 837,
      "à®İà®©": 838,
      "Ġà²«à²²": 839,
      "Ġspec": 840,
      "Ġcity": 841,
      "Ġplay": 842,
      "Ġannounced": 843,
      "Please": 844,
      "cient": 845,
      "Ġabout": 846,
      "Ġwith": 847,
      "Ġevening": 848,
      "Ġbefore": 849,
      "Can": 850,
      "Far": 851,
      "In": 852,
      "My": 853,
      "Mon": 854,
      "Our": 855,
      "Vol": 856,
      "ab": 857,
      "ad": 858,
      "ag": 859,
      "am": 860,
      "av": 861,
      "amp": 862,
      "age": 863,
      "ause": 864,
      "br": 865,
      "bmit": 866,
      "che": 867,
      "cer": 868,
      "cher": 869,
      "de": 870,
      "du": 871,
      "den": 872,
      "dge": 873,
      "ff": 874,
      "fter": 875,
      "fall": 876,
      "gu": 877,
      "gin": 878,
      "gion": 879,
      "gain": 880,
      "ho": 881,
      "iv": 882,
      "ix": 883,
      "ial": 884,
      "ks": 885,
      "ld": 886,
      "lp": 887,
      "lee": 888,
      "med": 889,
      "mers": 890,
      "om": 891,
      "over": 892,
      "ra": 893,
      "rin": 894,
      "ren": 895,
      "st": 896,
      "teers": 897,
      "ut": 898,
      "uar": 899,
      "ubmit": 900,
      "ves": 901,
      "vis": 902,
      "vel": 903,
      "way": 904,
      "Ġun": 905,
      "ĠMon": 906,
      "à¤¢": 907,
      "à¤īà¤¸": 908,
      "à¥Į": 909,
      "Ġà¤ī": 910,
      "Ġà¤ł": 911,
      "à¥ĩà¥¤": 912,
      "à¤°à¤¤": 913,
      "à¤°à¤¹": 914,
      "à¤°à¤®": 915,
      "Ġtr": 916,
      "Ġà¤ķà¤²": 917,
      "à¤¿à¤Ĥ": 918,
      "Ġair": 919,
      "Ġafter": 920,
      "Ġagain": 921,
      "à¤¤à¤¨": 922,
      "à¤ķà¤°": 923,
      "à¤ķà¤¤": 924,
      "à¥ĭ?": 925,
      "erfor": 926,
      "à¤²à¤¤": 927,
      "à¤¯à¤¨": 928,
      "à¤¯à¤ķ": 929,
      "à¤¯à¤®": 930,
      "Ġà¤¹à¤®": 931,
      "Ġà¤¹à¤ľ": 932,
      "Ġà¤¸à¤ķà¤¤": 933,
      "à¤¹à¤¤à¤°": 934,
      "Ġtheir": 935,
      "Ġà¤®à¤¦": 936,
      "ise": 937,
      "ish": 938,
      "ist": 939,
      "Ġser": 940,
      "Ġstor": 941,
      "Ġsend": 942,
      "Ġslee": 943,
      "Ġsubmit": 944,
      "à¤¸à¤°": 945,
      "à¤®à¤°": 946,
      "à¤®à¤¤": 947,
      "oncer": 948,
      "Ġà¤¬à¤Ĺ": 949,
      "Ġà¤¬à¤¢": 950,
      "Ġwon": 951,
      "Ġconcer": 952,
      "Ġfro": 953,
      "Ġfest": 954,
      "ared": 955,
      "Ġno": 956,
      "Ġnot": 957,
      "Ġà¤¨à¤¹": 958,
      "Ġà¤¨à¤Ī": 959,
      "Ġban": 960,
      "Ġbat": 961,
      "Ġbec": 962,
      "Ġbri": 963,
      "Ġmatch": 964,
      "Ġover": 965,
      "ant": 966,
      "angu": 967,
      "Ġdel": 968,
      "Ġdoc": 969,
      "Ġdow": 970,
      "Ġdrin": 971,
      "Ġrain": 972,
      "Ġriver": 973,
      "Ġeight": 974,
      "Ġeff": 975,
      "Ġhigh": 976,
      "à¤Ĺà¤Ń": 977,
      "ated": 978,
      "ation": 979,
      "Ġli": 980,
      "Ġlear": 981,
      "Ġlights": 982,
      "Ġlate": 983,
      "Ġletter": 984,
      "Ġlangu": 985,
      "Ġà¤ħà¤¸": 986,
      "Ġà¤ħà¤¡": 987,
      "Ġà¤ħà¤Ĺà¤²": 988,
      "Ġthan": 989,
      "à¤¬à¤¹": 990,
      "à¤¬à¤ļ": 991,
      "Ġà¤²à¤Ĺà¤Ń": 992,
      "à¤ĩà¤Ł": 993,
      "veral": 994,
      "Ġpro": 995,
      "Ġperfor": 996,
      "Ġoff": 997,
      "Ġoffic": 998,
      "Ġà¤¤à¤ķ": 999,
      "tery": 1000,
      "Ġyester": 1001,
      "Ġà¤ľà¤²": 1002,
      "Ġà¤Ĺà¤ı": 1003,
      "Ġà¤Ĺà¤Ī": 1004,
      "Ġà¤ķà¤°à¤¤": 1005,
      "ions": 1006,
      "tors": 1007,
      "tory": 1008,
      "Ġbeen": 1009,
      "Ġheav": 1010,
      "Ġhelp": 1011,
      "Ġone": 1012,
      "ocal": 1013,
      "unteers": 1014,
      "Ġà¤Ĩà¤ı": 1015,
      "Ġà¤ĩà¤²": 1016,
      "Ġà¤ĩà¤¸": 1017,
      "Ġstart": 1018,
      "Ġseveral": 1019,
      "Ġregion": 1020,
      "à¤Ľà¤²": 1021,
      "Ġalong": 1022,
      "Ġchild": 1023,
      "Ġmore": 1024,
      "Ġmorning": 1025,
      "getab": 1026,
      "hone": 1027,
      "Ġits": 1028,
      "Ġvegetab": 1029,
      "Ġà¤¯à¤¹": 1030,
      "Ġtwo": 1031,
      "Ġflights": 1032,
      "Ġmonth": 1033,
      "Ġmarket": 1034,
      "Ġdisc": 1035,
      "Ġhours": 1036,
      "Ġthousands": 1037,
      "Ġinto": 1038,
      "Ġspecial": 1039,
      "Farmers": 1040,
      "Volunteers": 1041,
      "ages": 1042,
      "duc": 1043,
      "gineers": 1044,
      "ival": 1045,
      "ĠMonday": 1046,
      "à¤īà¤¸à¤¨": 1047,
      "Ġairport": 1048,
      "Ġà¤®à¤¦à¤¦": 1049,
      "Ġsleep": 1050,
      "Ġconcert": 1051,
      "Ġfrom": 1052,
      "Ġfestival": 1053,
      "Ġbank": 1054,
      "Ġbattery": 1055,
      "Ġbecause": 1056,
      "Ġbridge": 1057,
      "Ġdelayed": 1058,
      "Ġdown": 1059,
      "Ġhighway": 1060,
      "Ġlanguages": 1061,
      "Ġà¤²à¤Ĺà¤Ńà¤Ĺ": 1062,
      "Ġperformed": 1063,
      "Ġoffice": 1064,
      "Ġyesterday": 1065,
      "Ġstartup": 1066,
      "Ġvegetables": 1067,
      "īà²¦": 1068,
      "īà®Ļ": 1069,
      "Ĭà²Ł": 1070,
      "Ĳà²¦": 1071,
      "Ĳà®¨": 1072,
      "ĵà²¦": 1073,
      "ľà®©": 1074,
      "à®ľ": 1075,
      "à®īà®Ļ": 1076,
      "à²«": 1077,
      "à²ĩ": 1078,
      "à²ŀ": 1079,
      "à¯į?": 1080,
      "Ġà®²": 1081,
      "Ġà®Ł": 1082,
      "Ġà®Ĳà®¨": 1083,
      "Ġà®ľà®©": 1084,
      "Ġà²¡": 1085,
      "Ġà²¯": 1086,
      "Ġà²²": 1087,
      "Ġà²ħà²µ": 1088,
      "Ġà²īà²¦": 1089,
      "Ġà²Ĭà²Ł": 1090,
      "Ġà²Ĳà²¦": 1091,
      "Ġà²ĵà²¦": 1092,
      "à®ķà®¤": 1093,
      "à®ķà®Ł": 1094,
      "à®ķà®±": 1095,
      "à®ķà®°à®®": 1096,
      "à®¤à®Ł": 1097,
      "à®¤à®µ": 1098,
      "à®¤à®ª": 1099,
      "à²¨à²¦": 1100,
      "à²¨à²¨à²Ĺ": 1101,
      "à²¨à²¦à²²": 1102,
      "à²¨à²µà²°": 1103,
      "à³Ĩ?": 1104,
      "à²°à²Ĺ": 1105,
      "à²°à²£": 1106,
      "à²°à²ľ": 1107,
      "à²°à²¦à²²": 1108,
      "à²°à²µà²¨": 1109,
      "à®Łà®®": 1110,
      "à®Łà®ª": 1111,
      "à®Łà®Ļ": 1112,
      "à²¦à²¦": 1113,
      "à®®à®°": 1114,
      "à®®à®²": 1115,
      "à®®à®´": 1116,
      "à®°à®¸": 1117,
      "à²¤à²Ĺ": 1118,
      "à²¤à²µ": 1119,
      "à²¤à²®": 1120,
      "à®²à®ķ": 1121,
      "à®²à®¤": 1122,
      "à®²à®²": 1123,
      "à²²à²¦": 1124,
      "à²²à²¸": 1125,
      "à²²à²¦à²²": 1126,
      "à²²à²¯à²µ": 1127,
      "à®µà®©": 1128,
      "à®µà®£": 1129,
      "à®µà®©à®®": 1130,
      "à®µà®©à®¤": 1131,
      "à®¯à®®": 1132,
      "à®¯à®°": 1133,
      "à®¯à®²": 1134,
      "à®³à®ķ": 1135,
      "à®±à®ķ": 1136,
      "à®¨à®ķà®°": 1137,
      "à²¯à²°": 1138,
      "à²¯à²ķ": 1139,
      "à²¸à²ķ": 1140,
      "à²¸à²Ń": 1141,
      "à²Łà²µ": 1142,
      "à²Łà²£": 1143,
      "à®ªà®¤": 1144,
      "à®ªà®®": 1145,
      "à®ªà®¯": 1146,
      "à²³à²²": 1147,
      "Ġà®®à®°": 1148,
      "Ġà®®à®´": 1149,
      "Ġà®®à®±à®¨": 1150,
      "à²®à²µ": 1151,
      "à²®à²³": 1152,
      "Ġà²¨à²¨": 1153,
      "Ġà²¨à²¡": 1154,
      "Ġà®ķà®°": 1155,
      "Ġà®ķà®±": 1156,
      "Ġà®ķà®ª": 1157,
      "Ġà®ķà®µà®°": 1158,
      "à²¡à²²": 1159,
      "à²¡à²¬": 1160,
      "Ġà®µà®´": 1161,
      "Ġà®¤à®©": 1162,
      "Ġà®¤à®¨": 1163,
      "Ġà®¤à®£": 1164,
      "Ġà®¤à®©à®¤": 1165,
      "Ġà®¤à®¯à®µ": 1166,
      "Ġà®ļà®¤": 1167,
      "Ġà®ļà®¯": 1168,
      "Ġà®ļà®®à®°": 1169,
      "Ġà²®à²¨": 1170,
      "Ġà²®à²°": 1171,
      "Ġà²®à²³": 1172,
      "Ġà®ªà®Ł": 1173,
      "Ġà®ªà®°": 1174,
      "Ġà®ªà®£": 1175,
      "Ġà®¨à®ķà®°": 1176,
      "Ġà®¨à®ķà®°à®®": 1177,
      "à²ļà²°": 1178,
      "Ġà®ħà®¤": 1179,
      "Ġà®ħà®°": 1180,
      "Ġà®ħà®£": 1181,
      "Ġà®ħà®®à®²": 1182,
      "Ġà®ħà®µà®©": 1183,
      "Ġà²ķà²²": 1184,
      "Ġà²ķà²ª": 1185,
      "Ġà²ķà²µà²°": 1186,
      "Ġà²¤à²°à²ķ": 1187,
      "Ġà²¹à²¬": 1188,
      "à®ļà®®": 1189,
      "à®ļà®²": 1190,
      "Ġà®ĩà®²": 1191,
      "Ġà®ĩà®©": 1192,
      "Ġà®ĩà®¨": 1193,
      "Ġà®ĩà®ļ": 1194,
      "à²¹à²²": 1195,
      "Ġà²¬à²Ĺ": 1196,
      "Ġà²¬à²¸": 1197,
      "Ġà²¬à²³": 1198,
      "Ġà²¬à²¹": 1199,
      "à²¬à²µà²¨": 1200,
      "Ġà²ªà²°": 1201,
      "Ġà²ªà²¤": 1202,
      "à®ħà®±": 1203,
      "Ġà®ĩà®°à®µ": 1204,
      "à®´à®®": 1205,
      "à²ªà²°": 1206,
      "à²ªà²¤": 1207,
      "à²ªà²¡": 1208,
      "à²ªà²Ĺà²³à²¨": 1209,
      "Ġà®İà®¤": 1210,
      "Ġà®İà®Ł": 1211,
      "Ġà®İà®©": 1212,
      "Ġà²µà²°": 1213,
      "Ġà²µà²°à²¦": 1214,
      "Ġà®īà®Ļ": 1215,
      "Ġà®īà®¤à®µ": 1216,
      "Ġà®īà®¯à®°": 1217,
      "Ġà²°à²¸": 1218,
      "Ġà²°à²ľ": 1219,
      "Ġà²ĩà²²": 1220,
      "Ġà²ĩà²ª": 1221,
      "Ġà²ĩà²·": 1222,
      "à²£à²¦": 1223,
      "à²£à²µà²¨": 1224,
      "à²ľà²¨": 1225,
      "Ġà®Ĵà®¤": 1226,
      "Ġà®Ĵà®µ": 1227,
      "Ġà²¦à²Ł": 1228,
      "Ġà²¦à²¯à²µ": 1229,
      "Ġà²Ĺà²¡": 1230,
      "à²¨à²Ĺà²°à²¦à²²": 1231,
      "à²·à²Ĺà²³": 1232,
      "Ġà²Ĩà²Ĺ": 1233,
      "Ġà²Ĩà²«": 1234,
      "Ġà²Ĩà²¸à²ķ": 1235,
      "Ġà²Ĩà²Łà²µ": 1236,
      "Ġà²Ĩà²ļà²°": 1237,
      "à²¦à²°à²°": 1238,
      "à®µà®°à®¤": 1239,
      "à®ªà®Łà®¤": 1240,
      "à³Īà²Ĥ": 1241,
      "Ġà²İà²·": 1242,
      "Ġà²Ĵà²¬": 1243,
      "Ġà²ľà²¨à²µà²°": 1244,
      "Ġà®ķà®Łà®µ": 1245,
      "à®İà®©à®ķ": 1246,
      "Ġà®°à®¯": 1247,
      "Ġà®Ĩà®ķ": 1248,
      "Ġà®Ĩà®£": 1249,
      "Ġà®Ĩà®µà®£": 1250,
      "Ġà²ħà²¨": 1251,
      "Ġà²ħà²¤": 1252,
      "Ġà²ħà²Ń": 1253,
      "Ġà²ļà²¹": 1254,
      "à²¥à²Ĺ": 1255,
      "à²ĸà²²": 1256,
      "Ġà²¶à²¬": 1257,
      "Ġà²ĸà²°": 1258,
      "à®¤à®°à®°": 1259,
      "à®¤à®©à®°": 1260,
      "à²¸à²¬à²²": 1261,
      "Ġà²¨à²Ĺà²°": 1262,
      "Ġà²¨à²Ĺà²°à²¦": 1263,
      "Ġà®µà®°à®µ": 1264,
      "Ġà²¸à²²à²¹": 1265,
      "Ġà®¨à®Łà®¨": 1266,
      "Ġà²¬à²°à²²": 1267,
      "Ġà®īà®£à®µà®ķà®¤": 1268,
      "Ġà®ľà®©à®µà®°": 1269,
      "Ġà²ħà²µà²¨": 1270,
      "à®¨à®ķà®°à®¤": 1271,
      "à²¯à²ķà²µ": 1272,
      "à²¡à²¬à²²": 1273,
      "Ġà®Ĩà®µà®£à®¤": 1274,
      "'s": 1275,
      "Ben": 1276,
      "Ch": 1277,
      "Di": 1278,
      "Del": 1279,
      "Doc": 1280,
      "En": 1281,
      "Fri": 1282,
      "Hea": 1283,
      "It": 1284,
      "Jan": 1285,
      "Local": 1286,
      "Pat": 1287,
      "Pow": 1288,
      "Pric": 1289,
      "Re": 1290,
      "Res": 1291,
      "Rain": 1292,
      "St": 1293,
      "Sun": 1294,
      "Scient": 1295,
      "Th": 1296,
      "Tra": 1297,
      "We": 1298,
      "Wh": 1299,
      "Water": 1300,
      "ak": 1301,
      "ais": 1302,
      "air": 1303,
      "aur": 1304,
      "bit": 1305,
      "bil": 1306,
      "ball": 1307,
      "bac": 1308,
      "ck": 1309,
      "cl": 1310,
      "clo": 1311,
      "cre": 1312,
      "cell": 1313,
      "cise": 1314,
      "di": 1315,
      "dl": 1316,
      "dy": 1317,
      "der": 1318,
      "ded": 1319,
      "ding": 1320,
      "dul": 1321,
      "dget": 1322,
      "ew": 1323,
      "eed": 1324,
      "eat": 1325,
      "ets": 1326,
      "ebr": 1327,
      "evel": 1328,
      "fe": 1329,
      "ful": 1330,
      "ffic": 1331,
      "gy": 1332,
      "gal": 1333,
      "gul": 1334,
      "got": 1335,
      "hn": 1336,
      "har": 1337,
      "hic": 1338,
      "iet": 1339,
      "ive": 1340,
      "imp": 1341,
      "ific": 1342,
      "ide": 1343,
      "iew": 1344,
      "ject": 1345,
      "ked": 1346,
      "ket": 1347,
      "lain": 1348,
      "lim": 1349,
      "lared": 1350,
      "lated": 1351,
      "mis": 1352,
      "mor": 1353,
      "men": 1354,
      "ment": 1355,
      "mot": 1356,
      "mend": 1357,
      "mmit": 1358,
      "mos": 1359,
      "mester": 1360,
      "mart": 1361,
      "na": 1362,
      "ner": 1363,
      "now": 1364,
      "nment": 1365,
      "od": 1366,
      "oes": 1367,
      "oon": 1368,
      "oir": 1369,
      "olo": 1370,
      "oot": 1371,
      "oom": 1372,
      "obil": 1373,
      "oked": 1374,
      "ps": 1375,
      "pit": 1376,
      "ply": 1377,
      "pared": 1378,
      "phone": 1379,
      "pair": 1380,
      "quar": 1381,
      "rt": 1382,
      "ron": 1383,
      "ring": 1384,
      "ree": 1385,
      "rup": 1386,
      "rand": 1387,
      "rac": 1388,
      "sw": 1389,
      "son": 1390,
      "sit": 1391,
      "sions": 1392,
      "slated": 1393,
      "soon": 1394,
      "ty": 1395,
      "ting": 1396,
      "tee": 1397,
      "ther": 1398,
      "taur": 1399,
      "trac": 1400,
      "ue": 1401,
      "uit": 1402,
      "uts": 1403,
      "uel": 1404,
      "uall": 1405,
      "uden": 1406,
      "udy": 1407,
      "vy": 1408,
      "ved": 1409,
      "var": 1410,
      "vent": 1411,
      "view": 1412,
      "voir": 1413,
      "wal": 1414,
      "wee": 1415,
      "wers": 1416,
      "wave": 1417,
      "ymp": 1418,
      "ycl": 1419,
      "Ġor": 1420,
      "Ġen": 1421,
      "Ġup": 1422,
      "Ġus": 1423,
      "ĠIn": 1424,
      "Ġvis": 1425,
      "ĠBen": 1426,
      "ĠDel": 1427,
      "ĠFri": 1428,
      "ĠJan": 1429,
      "ĠPat": 1430,
      "ĠSun": 1431,
      "Ġimp": 1432,
      "Ġquar": 1433,
      "Ġvar": 1434,
      "ħà¤Ĺà¤²": 1435,
      "Ĩà¤ľ": 1436,
      "Ĳà¤ª": 1437,
      "à¤ŀ": 1438,
      "à¤ħà¤Ĺà¤²": 1439,
      "à¤Ĩà¤ľ": 1440,
      "Ġà¤Ľ": 1441,
      "Ġà¤īà¤¸": 1442,
      "Ġà¤Ĳà¤ª": 1443,
      "à¤¾?": 1444,
      "à¤¾à¤Ĥ": 1445,
      "à¤°à¤¸": 1446,
      "à¤°à¤ľ": 1447,
      "à¤°à¤µ": 1448,
      "à¤°à¤¦": 1449,
      "à¤°à¤Ń": 1450,
      "hef": 1451,
      "hen": 1452,
      "à¥Ģ,": 1453,
      "Ġten": 1454,
      "Ġtec": 1455,
      "Ġtre": 1456,
      "Ġtur": 1457,
      "Ġtest": 1458,
      "Ġtell": 1459,
      "Ġtim": 1460,
      "Ġtak": 1461,
      "Ġà¤ķà¤¹": 1462,
      "Ġà¤ķà¤ª": 1463,
      "Ġà¤ķà¤µà¤°": 1464,
      "à¤¨à¤¸": 1465,
      "à¤¨à¤Ł": 1466,
      "à¤¨à¤ı": 1467,
      "à¤¨à¤Ī": 1468,
      "à¤¨à¤µà¤°": 1469,
      "Ġas": 1470,
      "Ġaver": 1471,
      "Ġass": 1472,
      "Ġart": 1473,
      "à¤ķà¤¡": 1474,
      "à¤ķà¤®à¤°": 1475,
      "era": 1476,
      "ere": 1477,
      "ering": 1478,
      "ercise": 1479,
      "ervoir": 1480,
      "à¤²à¤¨": 1481,
      "à¤²à¤¯": 1482,
      "à¤¯à¤¸": 1483,
      "à¤¯à¤¯à¤¨": 1484,
      "Ġà¤¹à¤µ": 1485,
      "ine": 1486,
      "inut": 1487,
      "inish": 1488,
      "inner": 1489,
      "Ġà¤¸à¤°": 1490,
      "Ġà¤¸à¤²": 1491,
      "Ġà¤¸à¤ª": 1492,
      "Ġà¤¸à¤«": 1493,
      "Ġà¤¸à¤Ń": 1494,
      "à¤¹à¤¨": 1495,
      "à¤¹à¤®": 1496,
      "à¤¹à¤µ": 1497,
      "Ġà¤®à¤¨": 1498,
      "Ġà¤®à¤¹": 1499,
      "Ġà¤®à¤°à¤®": 1500,
      "Ġà¤®à¤Ľà¤²": 1501,
      "esign": 1502,
      "esson": 1503,
      "ists": 1504,
      "ister": 1505,
      "Ġsing": 1506,
      "Ġsup": 1507,
      "Ġsign": 1508,
      "Ġsell": 1509,
      "Ġscient": 1510,
      "Ġsho": 1511,
      "Ġsix": 1512,
      "Ġshar": 1513,
      "Ġsmart": 1514,
      "Ġsnow": 1515,
      "Ġswee": 1516,
      "Ġsymp": 1517,
      "Ġsister": 1518,
      "à¤¸à¤®": 1519,
      "à¤¸à¤µà¤°": 1520,
      "Ġà¤ªà¤Ł": 1521,
      "ord": 1522,
      "ors": 1523,
      "à¤®à¤µ": 1524,
      "They": 1525,
      "one": 1526,
      "onal": 1527,
      "Ġà¤¬à¤ļ": 1528,
      "Ġwal": 1529,
      "Ġwent": 1530,
      "Ġwall": 1531,
      "Ġwell": 1532,
      "Ġwater": 1533,
      "Ġwatch": 1534,
      "Ġweat": 1535,
      "Ġwhen": 1536,
      "Ġwere": 1537,
      "Ġcan": 1538,
      "Ġcou": 1539,
      "Ġcel": 1540,
      "Ġcup": 1541,
      "Ġcounc": 1542,
      "Ġcle": 1543,
      "Ġcric": 1544,
      "Ġcross": 1545,
      "Ġcam": 1546,
      "Ġclim": 1547,
      "Ġcycl": 1548,
      "Ġchef": 1549,
      "enu": 1550,
      "à¤¼à¥ĩ": 1551,
      "à¤¼à¥ĭ": 1552,
      "à¤¼à¥Ī": 1553,
      "à¤¼à¥Ģà¤Ĥ": 1554,
      "à¤ľà¤²": 1555,
      "à¤ľà¤¬": 1556,
      "à¤Łà¤¬": 1557,
      "à¤Łà¤«": 1558,
      "Ġfas": 1559,
      "Ġfir": 1560,
      "Ġflo": 1561,
      "Ġfun": 1562,
      "Ġfri": 1563,
      "Ġfac": 1564,
      "Ġfix": 1565,
      "Ġfish": 1566,
      "Ġfeed": 1567,
      "Ġfive": 1568,
      "Ġfoot": 1569,
      "Ġfuel": 1570,
      "Ġfinish": 1571,
      "ary": 1572,
      "arden": 1573,
      "Ġnort": 1574,
      "à¤ªà¤°": 1575,
      "à¤ªà¤¤": 1576,
      "à¤ªà¤ķ": 1577,
      "à¤µà¤ķ": 1578,
      "à¤µà¤²": 1579,
      "à¤µà¤¯": 1580,
      "Ġà¤¦à¤¸": 1581,
      "Ġà¤¨à¤¤": 1582,
      "Ġà¤¨à¤ľ": 1583,
      "Ġà¤¨à¤¦": 1584,
      "Ġby": 1585,
      "Ġbro": 1586,
      "Ġbel": 1587,
      "Ġbest": 1588,
      "Ġbetter": 1589,
      "Ġbad": 1590,
      "Ġmy": 1591,
      "Ġmee": 1592,
      "Ġmet": 1593,
      "Ġmur": 1594,
      "Ġmill": 1595,
      "Ġmus": 1596,
      "Ġmany": 1597,
      "Ġmuse": 1598,
      "Ġmobil": 1599,
      "Ġminut": 1600,
      "Ġmenu": 1601,
      "Ġold": 1602,
      "Ġout": 1603,
      "Ġouts": 1604,
      "aned": 1605,
      "ange": 1606,
      "anted": 1607,
      "anslated": 1608,
      "Ġdal": 1609,
      "Ġdat": 1610,
      "Ġday": 1611,
      "Ġdec": 1612,
      "Ġdro": 1613,
      "Ġdir": 1614,
      "Ġdur": 1615,
      "Ġdea": 1616,
      "Ġdos": 1617,
      "Ġdoes": 1618,
      "Ġdue": 1619,
      "Ġdinner": 1620,
      "Ġdesign": 1621,
      "Ġrec": 1622,
      "Ġric": 1623,
      "Ġrul": 1624,
      "Ġrais": 1625,
      "Ġroom": 1626,
      "à¤¦à¤²": 1627,
      "alth": 1628,
      "Ġemp": 1629,
      "Ġevent": 1630,
      "ased": 1631,
      "assw": 1632,
      "asonal": 1633,
      "Ġhir": 1634,
      "Ġhot": 1635,
      "Ġhall": 1636,
      "Ġhim": 1637,
      "Ġhos": 1638,
      "ath": 1639,
      "atwave": 1640,
      "Ġlea": 1641,
      "Ġlong": 1642,
      "Ġlater": 1643,
      "Ġlocal": 1644,
      "Ġlevel": 1645,
      "Ġlesson": 1646,
      "Ġneed": 1647,
      "Ġnear": 1648,
      "its": 1649,
      "itors": 1650,
      "Ġà¤ħà¤¦": 1651,
      "Ġà¤ħà¤ļ": 1652,
      "Ġà¤ħà¤§": 1653,
      "Ġthree": 1654,
      "à¤¬à¤²": 1655,
      "Ġà¤°à¤µ": 1656,
      "Ġà¤°à¤¦": 1657,
      "Ġà¤°à¤ĸ": 1658,
      "à¤ĩà¤²": 1659,
      "à¤ĩà¤¯": 1660,
      "à¤ĩà¤¬": 1661,
      "à¤ĩà¤«": 1662,
      "ects": 1663,
      "Ġpain": 1664,
      "Ġpre": 1665,
      "Ġpric": 1666,
      "Ġpark": 1667,
      "Ġpol": 1668,
      "Ġphone": 1669,
      "Ġpassw": 1670,
      "Ġpath": 1671,
      "à¤Īà¤µ": 1672,
      "row": 1673,
      "rove": 1674,
      "roduc": 1675,
      "roved": 1676,
      "ilt": 1677,
      "ily": 1678,
      "Ġà¤¤à¤Ł": 1679,
      "Ġà¤¤à¤°à¤¹": 1680,
      "ely": 1681,
      "terly": 1682,
      "Ġincre": 1683,
      "à¥Ĥà¤ģ": 1684,
      "Ġà¤ľà¤®": 1685,
      "Ġà¤ľà¤¨à¤µà¤°": 1686,
      "Ġtoo": 1687,
      "Ġtoday": 1688,
      "Ġtomor": 1689,
      "ics": 1690,
      "icy": 1691,
      "à¤¶à¤ķ": 1692,
      "à¤¶à¤¯": 1693,
      "à¤ļà¤¤": 1694,
      "Ġà¤Ĺà¤°": 1695,
      "à¤¡à¤²": 1696,
      "Ġancient": 1697,
      "Ġrestor": 1698,
      "Ġresign": 1699,
      "Ġresum": 1700,
      "Ġresche": 1701,
      "Ġrestaur": 1702,
      "Ġreservoir": 1703,
      "Ġà¤µà¤¸": 1704,
      "Ġà¤µà¤¯à¤¸": 1705,
      "Ġforgot": 1706,
      "earcher": 1707,
      "load": 1708,
      "à¤·à¤ķ": 1709,
      "à¤·à¤£": 1710,
      "Ġà¤ĸà¤¤": 1711,
      "Ġà¤Ńà¤°": 1712,
      "enty": 1713,
      "Ġbeac": 1714,
      "uru": 1715,
      "Ġher": 1716,
      "Ġhealth": 1717,
      "Ġheatwave": 1718,
      "Ġcover": 1719,
      "Ġcode": 1720,
      "Ġcommit": 1721,
      "Ġcooked": 1722,
      "Ġexhi": 1723,
      "Ġexam": 1724,
      "Ġexamp": 1725,
      "Ġexercise": 1726,
      "ected": 1727,
      "ectly": 1728,
      "ock": 1729,
      "Ġgot": 1730,
      "Ġgover": 1731,
      "Ġgrand": 1732,
      "Ġguit": 1733,
      "Ġgone": 1734,
      "Ġgarden": 1735,
      "à¤ĸà¤°": 1736,
      "à¤ĸà¤¤": 1737,
      "Ġà¤Ĩà¤ľ": 1738,
      "Ġà¤Ĩà¤ł": 1739,
      "Ġà¤Ĩà¤®à¤¤": 1740,
      "Ġà¤Ĩà¤ªà¤ķ": 1741,
      "Ġà¤ĩà¤¤": 1742,
      "hern": 1743,
      "Ġattrac": 1744,
      "Ġstayed": 1745,
      "Ġstation": 1746,
      "Ġstudy": 1747,
      "Ġstock": 1748,
      "ount": 1749,
      "Ġweekend": 1750,
      "ried": 1751,
      "à¤¹à¤°à¤£": 1752,
      "Ġseven": 1753,
      "Ġsemester": 1754,
      "Ġseasonal": 1755,
      "ends": 1756,
      "Ġreport": 1757,
      "Ġrepair": 1758,
      "Ġreview": 1759,
      "pped": 1760,
      "à¤łà¤ķ": 1761,
      "Ġadults": 1762,
      "Ġadvis": 1763,
      "Ġadded": 1764,
      "Ġadmis": 1765,
      "Ġall": 1766,
      "Ġalmos": 1767,
      "Ġspring": 1768,
      "Ġchamp": 1769,
      "Ġchange": 1770,
      "Ġcities": 1771,
      "Ġbug": 1772,
      "Ġbuild": 1773,
      "Ġbudget": 1774,
      "Ġbuilt": 1775,
      "Ġopened": 1776,
      "ignmen": 1777,
      "Ġplanted": 1778,
      "ildren": 1779,
      "Ġannounce": 1780,
      "Ġclose": 1781,
      "Ġclosed": 1782,
      "Ġcloses": 1783,
      "Ġclosely": 1784,
      "hip": 1785,
      "hony": 1786,
      "iversit": 1787,
      "ument": 1788,
      "Ġvehic": 1789,
      "à¤§à¤ķà¤°": 1790,
      "Ġtwenty": 1791,
      "Ġteam": 1792,
      "Ġteacher": 1793,
      "Ġapproved": 1794,
      "Ġà¤¸à¤®à¤Ĺ": 1795,
      "Ġà¤¸à¤®à¤Ŀ": 1796,
      "Ġà¤¸à¤¬à¤¸": 1797,
      "Ġà¤¬à¤¹à¤¨": 1798,
      "Ġwork": 1799,
      "Ġworks": 1800,
      "Ġworried": 1801,
      "Ġflight": 1802,
      "Ġmonsoon": 1803,
      "Ġmarkets": 1804,
      "Ġdisrup": 1805,
      "Ġelection": 1806,
      "Ġelectric": 1807,
      "Ġelectron": 1808,
      "Ġhistory": 1809,
      "à¤ĩà¤¨à¤®": 1810,
      "Ġintroduc": 1811,
      "Ġexpand": 1812,
      "Ġexplain": 1813,
      "Ġexpected": 1814,
      "Ġspecies": 1815,
      "Ġplays": 1816,
      "Ġplaying": 1817,
      "Inves": 1818,
      "brary": 1819,
      "chest": 1820,
      "hood": 1821,
      "ommend": 1822,
      "overed": 1823,
      "uary": 1824,
      "Ġunits": 1825,
      "Ġuniversit": 1826,
      "Ġà¤īà¤¦": 1827,
      "Ġà¤īà¤¡": 1828,
      "Ġtrain": 1829,
      "Ġtranslated": 1830,
      "à¤¯à¤¨à¤¶": 1831,
      "Ġserver": 1832,
      "Ġserves": 1833,
      "Ġstore": 1834,
      "Ġstories": 1835,
      "Ġsubmitted": 1836,
      "à¤¸à¤°à¤ķ": 1837,
      "Ġwonder": 1838,
      "Ġnovel": 1839,
      "Ġnoise": 1840,
      "Ġoverall": 1841,
      "antly": 1842,
      "Ġdoctor": 1843,
      "Ġdocument": 1844,
      "Ġdrink": 1845,
      "Ġdrinks": 1846,
      "Ġrained": 1847,
      "Ġeffect": 1848,
      "Ġeffects": 1849,
      "Ġlife": 1850,
      "Ġlibrary": 1851,
      "Ġlearn": 1852,
      "Ġlearning": 1853,
      "Ġproduc": 1854,
      "Ġproject": 1855,
      "Ġoffering": 1856,
      "Ġà¤ľà¤²à¤µ": 1857,
      "ionship": 1858,
      "Ġheavy": 1859,
      "Ġheavily": 1860,
      "Ġhelps": 1861,
      "Ġchildren": 1862,
      "Ġchildhood": 1863,
      "Ġdiscount": 1864,
      "Ġdiscovered": 1865,
      "Ġbanking": 1866,
      "Ġdownload": 1867,
      "Children": 1868,
      "Diwal": 1869,
      "Doctors": 1870,
      "Engineers": 1871,
      "Heavy": 1872,
      "Power": 1873,
      "Prices": 1874,
      "Regul": 1875,
      "Researcher": 1876,
      "Rainfall": 1877,
      "Studen": 1878,
      "Scientists": 1879,
      "This": 1880,
      "Traffic": 1881,
      "What": 1882,
      "bition": 1883,
      "back": 1884,
      "clock": 1885,
      "celled": 1886,
      "dia": 1887,
      "dline": 1888,
      "duled": 1889,
      "ebrated": 1890,
      "galuru": 1891,
      "hnolo": 1892,
      "ieties": 1893,
      "ificantly": 1894,
      "mother": 1895,
      "pital": 1896,
      "thers": 1897,
      "ually": 1898,
      "Ġorchest": 1899,
      "Ġengineers": 1900,
      "Ġusually": 1901,
      "ĠIndia": 1902,
      "Ġvisitors": 1903,
      "ĠBengaluru": 1904,
      "ĠDelhi": 1905,
      "ĠFriday": 1906,
      "ĠJanuary": 1907,
      "ĠPatna": 1908,
      "ĠSunday": 1909,
      "Ġimprove": 1910,
      "Ġquarterly": 1911,
      "Ġvarieties": 1912,
      "à¤°à¤¦à¤°": 1913,
      "Ġtechnolo": 1914,
      "Ġtrees": 1915,
      "Ġturn": 1916,
      "Ġtesting": 1917,
      "Ġtells": 1918,
      "Ġtime": 1919,
      "Ġtake": 1920,
      "Ġaverage": 1921,
      "Ġassignmen": 1922,
      "Ġartist": 1923,
      "Ġsinger": 1924,
      "Ġsupply": 1925,
      "Ġsignificantly": 1926,
      "Ġscientist": 1927,
      "Ġshops": 1928,
      "Ġshare": 1929,
      "Ġsmartphone": 1930,
      "Ġsnowfall": 1931,
      "Ġsweets": 1932,
      "Ġsymphony": 1933,
      "Ġà¤ªà¤Łà¤¨": 1934,
      "Ġà¤¬à¤ļà¤ªà¤¨": 1935,
      "Ġwalk": 1936,
      "Ġwatching": 1937,
      "Ġweather": 1938,
      "Ġcancelled": 1939,
      "Ġcould": 1940,
      "Ġcelebrated": 1941,
      "Ġcups": 1942,
      "Ġcouncil": 1943,
      "Ġcleaned": 1944,
      "Ġcricket": 1945,
      "Ġcrossed": 1946,
      "Ġcamera": 1947,
      "Ġclimate": 1948,
      "Ġcycling": 1949,
      "à¤¼à¥Ģà¤Ĥà¥¤": 1950,
      "Ġfaster": 1951,
      "Ġfirst": 1952,
      "Ġflowers": 1953,
      "Ġfunding": 1954,
      "Ġfriends": 1955,
      "Ġfactory": 1956,
      "Ġfeedback": 1957,
      "Ġfootball": 1958,
      "Ġnorthern": 1959,
      "Ġbrothers": 1960,
      "Ġbelow": 1961,
      "Ġmeeting": 1962,
      "Ġmetro": 1963,
      "Ġmural": 1964,
      "Ġmillion": 1965,
      "Ġmust": 1966,
      "Ġmuseum": 1967,
      "Ġmobile": 1968,
      "Ġminutes": 1969,
      "Ġoutage": 1970,
      "Ġoutside": 1971,
      "Ġdata": 1972,
      "Ġdeclared": 1973,
      "Ġdropped": 1974,
      "Ġdirectly": 1975,
      "Ġduring": 1976,
      "Ġdeadline": 1977,
      "Ġdosa": 1978,
      "Ġrecommend": 1979,
      "Ġrice": 1980,
      "Ġrules": 1981,
      "Ġraised": 1982,
      "Ġempty": 1983,
      "Ġhiring": 1984,
      "Ġhospital": 1985,
      "Ġleave": 1986,
      "Ġlonger": 1987,
      "Ġlevels": 1988,
      "Ġpainted": 1989,
      "Ġprepared": 1990,
      "Ġprice": 1991,
      "Ġpolicy": 1992,
      "Ġpassword": 1993,
      "Ġincreased": 1994,
      "à¥Ĥà¤ģà¥¤": 1995,
      "Ġtomorrow": 1996,
      "Ġrestored": 1997,
      "Ġresignation": 1998,
      "Ġresume": 1999,
      "Ġrescheduled": 2000,
      "Ġrestaurant": 2001,
      "Ġbeach": 2002,
      "Ġcommittee": 2003,
      "Ġexhibition": 2004,
      "Ġexamples": 2005,
      "Ġgovernment": 2006,
      "Ġgrandmother": 2007,
      "Ġguitar": 2008,
      "Ġattracted": 2009,
      "Ġstudying": 2010,
      "Ġrepairs": 2011,
      "Ġadvised": 2012,
      "Ġadmissions": 2013,
      "Ġalmost": 2014,
      "Ġchampionship": 2015,
      "Ġbuilding": 2016,
      "Ġvehicles": 2017,
      "Ġdisrupted": 2018,
      "Ġelectronics": 2019,
      "Ġintroduced": 2020,
      "Ġexplained": 2021,
      "Investors": 2022,
      "Ġuniversity": 2023,
      "Ġwonderful": 2024,
      "Ġproduces": 2025,
      "Ġdownloads": 2026,
      "Diwali": 2027,
      "Regular": 2028,
      "Researchers": 2029,
      "Students": 2030,
      "Ġorchestra": 2031,
      "Ġtechnology": 2032,
      "Ġassignments": 2033
    },
    "merges": [
      [
        "à",
        "®"
      ],
      [
        "à",
        "²"
      ],
      [
        "à",
        "¤"
      ],
      [
        "à",
        "¯"
      ],
      [
        "à",
        "³"
      ],
      [
        "à",
        "¥"
      ],
      [
        "Ġ",
        "à¤"
      ],
      [
        "à¯",
        "į"
      ],
      [
        "Ġ",
        "à®"
      ],
      [
        "Ġ",
        "à²"
      ],
      [
        "à¯",
        "ģ"
      ],
      [
        "à®",
        "ķ"
      ],
      [
        "à³",
        "į"
      ],
      [
        "à²",
        "¿"
      ],
      [
        "à®",
        "¿"
      ],
      [
        "à¤",
        "¾"
      ],
      [
        "à¥",
        "ĩ"
      ],
      [
        "à³",
        "ģ"
      ],
      [
        "à®",
        "¤"
      ],
      [
        "à²",
        "¨"
      ],
      [
        "à³",
        "Ĩ"
      ],
      [
        "à¤",
        "°"
      ],
      [
        "à²",
        "¾"
      ],
      [
        "à²",
        "°"
      ],
      [
        "à®",
        "Ł"
      ],
      [
        "à²",
        "¦"
      ],
      [
        "à®",
        "¾"
      ],
      [
        "à®",
        "®"
      ],
      [
        "à®",
        "°"
      ],
      [
        "à²",
        "¤"
      ],
      [
        "h",
        "e"
      ],
      [
        "à®",
        "²"
      ],
      [
        "à¥",
        "į"
      ],
      [
        "à²",
        "Ĺ"
      ],
      [
        "à¥",
        "Ģ"
      ],
      [
        "Ġ",
        "t"
      ],
      [
        "à®",
        "©"
      ],
      [
        "à²",
        "²"
      ],
      [
        "à®",
        "µ"
      ],
      [
        "à¤",
        "Ĥ"
      ],
      [
        "Ġà¤",
        "ķ"
      ],
      [
        "à¤",
        "¨"
      ],
      [
        "à¯",
        "Ī"
      ],
      [
        "à¤",
        "¿"
      ],
      [
        "à®",
        "¯"
      ],
      [
        "à®",
        "³"
      ],
      [
        "Ġ",
        "a"
      ],
      [
        "à¤",
        "¤"
      ],
      [
        "à¤",
        "ķ"
      ],
      [
        "à¥",
        "¤"
      ],
      [
        "à²",
        "µ"
      ],
      [
        "à²",
        "Ĥ"
      ],
      [
        "à®",
        "±"
      ],
      [
        "à¥",
        "ĭ"
      ],
      [
        "e",
        "r"
      ],
      [
        "à¤",
        "²"
      ],
      [
        "à¤",
        "¯"
      ],
      [
        "Ġà¤",
        "¹"
      ],
      [
        "à®",
        "¨"
      ],
      [
        "i",
        "n"
      ],
      [
        "Ġà¤",
        "¸"
      ],
      [
        "à²",
        "¯"
      ],
      [
        "à¤",
        "¹"
      ],
      [
        "à²",
        "¸"
      ],
      [
        "à²",
        "Ł"
      ],
      [
        "à¥",
        "Ī"
      ],
      [
        "à®",
        "ª"
      ],
      [
        "Ġt",
        "he"
      ],
      [
        "Ġà¤",
        "®"
      ],
      [
        "à¯į",
        "."
      ],
      [
        "à²",
        "³"
      ],
      [
        "Ġà®",
        "®"
      ],
      [
        "e",
        "d"
      ],
      [
        "e",
        "s"
      ],
      [
        "i",
        "s"
      ],
      [
        "à¯",
        "Ĩ"
      ],
      [
        "Ġ",
        "s"
      ],
      [
        "à¤",
        "¸"
      ],
      [
        "Ġà¤",
        "ª"
      ],
      [
        "à²",
        "®"
      ],
      [
        "Ġà²",
        "¨"
      ],
      [
        "o",
        "r"
      ],
      [
        "à¤",
        "®"
      ],
      [
        "T",
        "he"
      ],
      [
        "o",
        "n"
      ],
      [
        "à²",
        "ķ"
      ],
      [
        "Ġà®",
        "ķ"
      ],
      [
        "à®ķ",
        "à®³"
      ],
      [
        "Ġà¤",
        "¬"
      ],
      [
        "à²",
        "¡"
      ],
      [
        "à³Ĩ",
        "."
      ],
      [
        "Ġ",
        "w"
      ],
      [
        "Ġ",
        "c"
      ],
      [
        "Ġà®",
        "µ"
      ],
      [
        "e",
        "n"
      ],
      [
        "à¤",
        "¼"
      ],
      [
        "à¤",
        "ľ"
      ],
      [
        "Ġà®",
        "¤"
      ],
      [
        "Ġà®",
        "ļ"
      ],
      [
        "à¤",
        "Ł"
      ],
      [
        "à®",
        "£"
      ],
      [
        "à¯",
        "ĩ"
      ],
      [
        "Ġà²",
        "®"
      ],
      [
        "à¥ĩ",
        "à¤Ĥ"
      ],
      [
        "Ġ",
        "f"
      ],
      [
        "à¥",
        "ģ"
      ],
      [
        "Ġà®",
        "ª"
      ],
      [
        "Ġà²",
        "¸"
      ],
      [
        "a",
        "r"
      ],
      [
        "Ġ",
        "n"
      ],
      [
        "à¤",
        "ª"
      ],
      [
        "à¤",
        "µ"
      ],
      [
        "Ġà¤",
        "¦"
      ],
      [
        "à³",
        "ĭ"
      ],
      [
        "Ġà¤",
        "¨"
      ],
      [
        "Ġ",
        "b"
      ],
      [
        "Ġ",
        "m"
      ],
      [
        "Ġ",
        "o"
      ],
      [
        "Ġà®",
        "¨"
      ],
      [
        "a",
        "n"
      ],
      [
        "Ġ",
        "d"
      ],
      [
        "Ġ",
        "r"
      ],
      [
        "à²",
        "ļ"
      ],
      [
        "à¤",
        "¦"
      ],
      [
        "Ġà®",
        "ħ"
      ],
      [
        "Ġà²",
        "ķ"
      ],
      [
        "a",
        "l"
      ],
      [
        "Ġ",
        "e"
      ],
      [
        "Ġà²",
        "¤"
      ],
      [
        "Ġà²",
        "¹"
      ],
      [
        "a",
        "s"
      ],
      [
        "o",
        "u"
      ],
      [
        "Ġ",
        "h"
      ],
      [
        "à¤",
        "ı"
      ],
      [
        "à¤",
        "Ĺ"
      ],
      [
        "a",
        "t"
      ],
      [
        "Ġ",
        "l"
      ],
      [
        "à®",
        "ļ"
      ],
      [
        "Ġà®",
        "ĩ"
      ],
      [
        "in",
        "g"
      ],
      [
        "Ġn",
        "e"
      ],
      [
        "à®",
        "Ļ"
      ],
      [
        "à²",
        "¹"
      ],
      [
        "Ġà²",
        "¬"
      ],
      [
        "i",
        "t"
      ],
      [
        "Ġà¤",
        "ħ"
      ],
      [
        "Ġt",
        "h"
      ],
      [
        "à²",
        "¬"
      ],
      [
        "à¤",
        "¬"
      ],
      [
        "à³",
        "Ģ"
      ],
      [
        "Ġà¤",
        "°"
      ],
      [
        "Ġà¤",
        "²"
      ],
      [
        "Ġà²",
        "ª"
      ],
      [
        "à¯ģ",
        "."
      ],
      [
        "à³ģ",
        "."
      ],
      [
        "à¤",
        "ĩ"
      ],
      [
        "à¥Ī",
        "à¤Ĥ"
      ],
      [
        "à¥Ī",
        "à¥¤"
      ],
      [
        "à®",
        "ħ"
      ],
      [
        "à³",
        "ĩ"
      ],
      [
        "à³",
        "Ĭ"
      ],
      [
        "a",
        "y"
      ],
      [
        "e",
        "c"
      ],
      [
        "i",
        "g"
      ],
      [
        "t",
        "s"
      ],
      [
        "v",
        "er"
      ],
      [
        "Ġ",
        "p"
      ],
      [
        "à¤",
        "Ī"
      ],
      [
        "Ġo",
        "f"
      ],
      [
        "r",
        "o"
      ],
      [
        "Ġà®ĩ",
        "à®°"
      ],
      [
        "i",
        "l"
      ],
      [
        "à¤",
        "«"
      ],
      [
        "Ġà¤",
        "¤"
      ],
      [
        "à¤¾",
        "à¥¤"
      ],
      [
        "à¥ĭ",
        "à¤Ĥ"
      ],
      [
        "à¤ª",
        "à¤¨"
      ],
      [
        "Ġne",
        "w"
      ],
      [
        "ħ",
        "à²µ"
      ],
      [
        "à®",
        "´"
      ],
      [
        "à®",
        "ĩ"
      ],
      [
        "à²",
        "ª"
      ],
      [
        "à¯",
        "Ĥ"
      ],
      [
        "à¯",
        "Ĭ"
      ],
      [
        "à¯",
        "ĭ"
      ],
      [
        "Ġà®",
        "İ"
      ],
      [
        "à®ķ",
        "à®®"
      ],
      [
        "à²Ĺ",
        "à²³"
      ],
      [
        "e",
        "l"
      ],
      [
        "t",
        "er"
      ],
      [
        "Ġ",
        "y"
      ],
      [
        "Ġ",
        "in"
      ],
      [
        "à¥",
        "Ĥ"
      ],
      [
        "Ġà¤",
        "ľ"
      ],
      [
        "Ġt",
        "o"
      ],
      [
        "Ġth",
        "is"
      ],
      [
        "e",
        "e"
      ],
      [
        "i",
        "c"
      ],
      [
        "à²",
        "ħà²µ"
      ],
      [
        "à¤",
        "¶"
      ],
      [
        "à¤",
        "ļ"
      ],
      [
        "Ġà¤",
        "Ĺ"
      ],
      [
        "Ġà²",
        "µ"
      ],
      [
        "Ġà¤ķ",
        "à¤°"
      ],
      [
        "à®ħ",
        "à®µ"
      ],
      [
        "ig",
        "h"
      ],
      [
        "e",
        "t"
      ],
      [
        "à¤",
        "¡"
      ],
      [
        "Ġa",
        "n"
      ],
      [
        "à¥Īà¤Ĥ",
        "à¥¤"
      ],
      [
        "Ġà®",
        "ī"
      ],
      [
        "Ġà²",
        "°"
      ],
      [
        "Ġà²",
        "ĩ"
      ],
      [
        "à®ĩ",
        "à®¨"
      ],
      [
        "v",
        "e"
      ],
      [
        "à¤¼",
        "à¥į"
      ],
      [
        "Ġr",
        "es"
      ],
      [
        "Ġà¤ħ",
        "à¤ªà¤¨"
      ],
      [
        "i",
        "r"
      ],
      [
        "i",
        "on"
      ],
      [
        "u",
        "l"
      ],
      [
        "ı",
        "à¤ķ"
      ],
      [
        "à²",
        "£"
      ],
      [
        "à²",
        "Ī"
      ],
      [
        "à²",
        "ľ"
      ],
      [
        "à¯",
        "Ģ"
      ],
      [
        "Ġà¤",
        "µ"
      ],
      [
        "Ġà¤",
        "¶"
      ],
      [
        "Ġà¤",
        "ıà¤ķ"
      ],
      [
        "Ġà®",
        "Ĵ"
      ],
      [
        "Ġà²",
        "¦"
      ],
      [
        "Ġà²",
        "Ĺ"
      ],
      [
        "à²¿",
        "à²Ĥ"
      ],
      [
        "à³ģ",
        "à²Ĥ"
      ],
      [
        "à®¤",
        "à®¤"
      ],
      [
        "à²¨",
        "à²Ĺ"
      ],
      [
        "à²¦",
        "à²²"
      ],
      [
        "Ġà¤ª",
        "à¤°"
      ],
      [
        "à¤¼",
        "à¤¾"
      ],
      [
        "Ġf",
        "or"
      ],
      [
        "a",
        "in"
      ],
      [
        "e",
        "ar"
      ],
      [
        "l",
        "o"
      ],
      [
        "m",
        "p"
      ],
      [
        "r",
        "e"
      ],
      [
        "t",
        "or"
      ],
      [
        "à¤",
        "·"
      ],
      [
        "Ġà¤",
        "ĸ"
      ],
      [
        "Ġà¤",
        "Ń"
      ],
      [
        "en",
        "t"
      ],
      [
        "Ġb",
        "e"
      ],
      [
        "à²",
        "·"
      ],
      [
        "à³",
        "Ĥ"
      ],
      [
        "Ġà²",
        "Ĩ"
      ],
      [
        "à®ķ",
        "à®µ"
      ],
      [
        "à²¦",
        "à²°"
      ],
      [
        "à®©",
        "à®ķ"
      ],
      [
        "à®©",
        "à®®"
      ],
      [
        "à®µ",
        "à®°"
      ],
      [
        "à²µ",
        "à²°"
      ],
      [
        "à²¯",
        "à²µ"
      ],
      [
        "à®ª",
        "à®Ł"
      ],
      [
        "d",
        "ay"
      ],
      [
        "o",
        "t"
      ],
      [
        "u",
        "r"
      ],
      [
        "Ġ",
        "he"
      ],
      [
        "Ġ",
        "is"
      ],
      [
        "Ġ",
        "on"
      ],
      [
        "à¥Ģ",
        "à¥¤"
      ],
      [
        "er",
        "s"
      ],
      [
        "Ġc",
        "o"
      ],
      [
        "al",
        "l"
      ],
      [
        "Ġe",
        "x"
      ],
      [
        "Ġà¤°",
        "à¤¹"
      ],
      [
        "ec",
        "t"
      ],
      [
        "e",
        "a"
      ],
      [
        "o",
        "c"
      ],
      [
        "u",
        "n"
      ],
      [
        "u",
        "p"
      ],
      [
        "Ġ",
        "g"
      ],
      [
        "Ķ",
        "à¤°"
      ],
      [
        "à²",
        "¶"
      ],
      [
        "à¤",
        "ģ"
      ],
      [
        "à¤",
        "ĸ"
      ],
      [
        "à³",
        "Ī"
      ],
      [
        "Ġà¤",
        "«"
      ],
      [
        "Ġà¤",
        "Ĩ"
      ],
      [
        "Ġà¤",
        "ĩ"
      ],
      [
        "Ġà¤",
        "Ķà¤°"
      ],
      [
        "Ġà²",
        "İ"
      ],
      [
        "Ġà²",
        "Ĵ"
      ],
      [
        "Ġà²",
        "ľ"
      ],
      [
        "à²¨",
        "à²²"
      ],
      [
        "à²°",
        "à²¤"
      ],
      [
        "à²°",
        "à²ķ"
      ],
      [
        "à®°",
        "à®®"
      ],
      [
        "à²¤",
        "à²¦"
      ],
      [
        "he",
        "r"
      ],
      [
        "à®²",
        "à®ķà®®"
      ],
      [
        "Ġa",
        "t"
      ],
      [
        "à¤¤",
        "à¤°"
      ],
      [
        "Ġà®®",
        "à®£"
      ],
      [
        "Ġs",
        "t"
      ],
      [
        "Ġà²¨",
        "à²¨à²Ĺ"
      ],
      [
        "Ġà®ķ",
        "à®Ł"
      ],
      [
        "Ġw",
        "as"
      ],
      [
        "Ġw",
        "ee"
      ],
      [
        "Ġà²®",
        "à²¤"
      ],
      [
        "Ġà®ħ",
        "à®±"
      ],
      [
        "ou",
        "n"
      ],
      [
        "ou",
        "r"
      ],
      [
        "Ġh",
        "as"
      ],
      [
        "à¤ĩ",
        "à¤¸"
      ],
      [
        "il",
        "l"
      ],
      [
        "Ġà®İ",
        "à®©à®ķ"
      ],
      [
        "igh",
        "t"
      ],
      [
        "Ġan",
        "d"
      ],
      [
        "Ġà®Ĵ",
        "à®°"
      ],
      [
        "Ġwee",
        "k"
      ],
      [
        "f",
        "or"
      ],
      [
        "g",
        "e"
      ],
      [
        "o",
        "w"
      ],
      [
        "r",
        "i"
      ],
      [
        "s",
        "s"
      ],
      [
        "t",
        "ed"
      ],
      [
        "u",
        "s"
      ],
      [
        "à¤",
        "¥"
      ],
      [
        "à¤",
        "Ń"
      ],
      [
        "à¥",
        "ī"
      ],
      [
        "Ġà¤",
        "¥"
      ],
      [
        "Ġà¤",
        "ļ"
      ],
      [
        "Ġà¤",
        "Ł"
      ],
      [
        "Ġa",
        "re"
      ],
      [
        "à¤¹",
        "à¤°"
      ],
      [
        "Ġs",
        "e"
      ],
      [
        "Ġà¤¬",
        "à¤¨"
      ],
      [
        "Ġw",
        "ill"
      ],
      [
        "en",
        "d"
      ],
      [
        "à¤Ł",
        "à¤°"
      ],
      [
        "à¤µ",
        "à¤°"
      ],
      [
        "an",
        "d"
      ],
      [
        "Ġr",
        "e"
      ],
      [
        "Ġy",
        "ear"
      ],
      [
        "Ġà¤Ĺ",
        "à¤¯"
      ],
      [
        "ul",
        "ts"
      ],
      [
        "oun",
        "c"
      ],
      [
        "â",
        "Ģ"
      ],
      [
        "à®",
        "¸"
      ],
      [
        "à®",
        "İ"
      ],
      [
        "Ġà®",
        "°"
      ],
      [
        "Ġà®",
        "Ĩ"
      ],
      [
        "Ġà²",
        "«"
      ],
      [
        "Ġà²",
        "ħ"
      ],
      [
        "Ġà²",
        "ļ"
      ],
      [
        "à³į",
        "âĢ"
      ],
      [
        "à²¿",
        "."
      ],
      [
        "à®¤",
        "à®®"
      ],
      [
        "à²°",
        "à²¡"
      ],
      [
        "à®Ł",
        "à®¤"
      ],
      [
        "à®©",
        "à®¤"
      ],
      [
        "à®µ",
        "à®²à®ķà®®"
      ],
      [
        "à®¯",
        "à®µ"
      ],
      [
        "à®³",
        "à®¤"
      ],
      [
        "à²µ",
        "à²¨"
      ],
      [
        "à®±",
        "à®¤"
      ],
      [
        "à²¯",
        "à²¨"
      ],
      [
        "à²¸",
        "à²²"
      ],
      [
        "Ġà®ļ",
        "à®°"
      ],
      [
        "Ġà²¸",
        "à²°"
      ],
      [
        "Ġà²¸",
        "à²¹"
      ],
      [
        "Ġà®ħ",
        "à®²"
      ],
      [
        "Ġà²ķ",
        "à²ļ"
      ],
      [
        "à®´",
        "à®¨"
      ],
      [
        "à²Ĺà²³",
        "à²¨"
      ],
      [
        "à²ħà²µ",
        "à²¨"
      ],
      [
        "à²ħà²µ",
        "à²³"
      ],
      [
        "à®ħà®µ",
        "à®©"
      ],
      [
        "à®ħà®µ",
        "à®³"
      ],
      [
        "à³įâĢ",
        "Į"
      ],
      [
        "a",
        "c"
      ],
      [
        "a",
        "ve"
      ],
      [
        "e",
        "ers"
      ],
      [
        "f",
        "ic"
      ],
      [
        "i",
        "es"
      ],
      [
        "l",
        "e"
      ],
      [
        "l",
        "y"
      ],
      [
        "l",
        "es"
      ],
      [
        "n",
        "ounc"
      ],
      [
        "p",
        "p"
      ],
      [
        "p",
        "en"
      ],
      [
        "r",
        "ic"
      ],
      [
        "v",
        "en"
      ],
      [
        "x",
        "t"
      ],
      [
        "à¤",
        "Ľ"
      ],
      [
        "à¤",
        "ł"
      ],
      [
        "Ġà¤",
        "¡"
      ],
      [
        "Ġà¤",
        "ĺ"
      ],
      [
        "Ġa",
        "d"
      ],
      [
        "Ġa",
        "l"
      ],
      [
        "à¤ķ",
        "à¤²"
      ],
      [
        "à¤¹",
        "à¤²"
      ],
      [
        "es",
        "t"
      ],
      [
        "Ġs",
        "p"
      ],
      [
        "Ġà¤ª",
        "à¤¹à¤²"
      ],
      [
        "or",
        "t"
      ],
      [
        "Ġà¤¬",
        "à¤ľ"
      ],
      [
        "Ġc",
        "h"
      ],
      [
        "Ġc",
        "it"
      ],
      [
        "Ġc",
        "lo"
      ],
      [
        "ar",
        "k"
      ],
      [
        "à¤µ",
        "à¤¹"
      ],
      [
        "Ġb",
        "u"
      ],
      [
        "Ġm",
        "or"
      ],
      [
        "Ġo",
        "pen"
      ],
      [
        "an",
        "y"
      ],
      [
        "Ġe",
        "ver"
      ],
      [
        "à¤Ĺ",
        "à¤²"
      ],
      [
        "Ġne",
        "xt"
      ],
      [
        "ig",
        "n"
      ],
      [
        "Ġp",
        "l"
      ],
      [
        "ro",
        "ss"
      ],
      [
        "il",
        "d"
      ],
      [
        "el",
        "l"
      ],
      [
        "igh",
        "ts"
      ],
      [
        "Ġan",
        "nounc"
      ],
      [
        "Ġres",
        "ults"
      ],
      [
        "Ġclo",
        "s"
      ],
      [
        "Ġever",
        "y"
      ],
      [
        "H",
        "e"
      ],
      [
        "P",
        "le"
      ],
      [
        "S",
        "he"
      ],
      [
        "b",
        "ou"
      ],
      [
        "c",
        "h"
      ],
      [
        "c",
        "i"
      ],
      [
        "c",
        "ross"
      ],
      [
        "g",
        "et"
      ],
      [
        "h",
        "i"
      ],
      [
        "h",
        "on"
      ],
      [
        "i",
        "m"
      ],
      [
        "i",
        "ver"
      ],
      [
        "l",
        "ect"
      ],
      [
        "m",
        "it"
      ],
      [
        "n",
        "ing"
      ],
      [
        "o",
        "l"
      ],
      [
        "o",
        "s"
      ],
      [
        "p",
        "ort"
      ],
      [
        "s",
        "and"
      ],
      [
        "t",
        "h"
      ],
      [
        "u",
        "m"
      ],
      [
        "Ġ",
        "it"
      ],
      [
        "Ġ",
        "ve"
      ],
      [
        "ī",
        "à¤¸"
      ],
      [
        "à²",
        "¥"
      ],
      [
        "à²",
        "ĸ"
      ],
      [
        "à²",
        "Ń"
      ],
      [
        "à¤",
        "£"
      ],
      [
        "à¤",
        "§"
      ],
      [
        "à¤",
        "Ŀ"
      ],
      [
        "à¥",
        "ĥ"
      ],
      [
        "Ġà¤",
        "¯"
      ],
      [
        "Ġà²",
        "¶"
      ],
      [
        "Ġà²",
        "Ī"
      ],
      [
        "Ġà²",
        "ĸ"
      ],
      [
        "à®ķ",
        "à®°"
      ],
      [
        "à®ķ",
        "à®ª"
      ],
      [
        "à¤¾",
        "à¤ģ"
      ],
      [
        "à®¤",
        "à®°"
      ],
      [
        "à®¤",
        "à®²"
      ],
      [
        "à®¤",
        "à®©"
      ],
      [
        "à®¤",
        "à®ķà®®"
      ],
      [
        "à®¤",
        "à®¯à®µ"
      ],
      [
        "à²¨",
        "à²¨"
      ],
      [
        "à³Ĩ",
        "à²Ĥ"
      ],
      [
        "à²¾",
        "?"
      ],
      [
        "à²¾",
        "à²Ĥ"
      ],
      [
        "à²°",
        "à²¦"
      ],
      [
        "à®Ł",
        "à®°"
      ],
      [
        "à²¦",
        "à²¨"
      ],
      [
        "à²¦",
        "à²¯à²µ"
      ],
      [
        "à®¾",
        "?"
      ],
      [
        "à®®",
        "à®¤à®®"
      ],
      [
        "à²¤",
        "à²ķ"
      ],
      [
        "à¥Ģ",
        "à¤Ĥ"
      ],
      [
        "Ġt",
        "w"
      ],
      [
        "Ġt",
        "ea"
      ],
      [
        "Ġà¤ķ",
        "à¤Ī"
      ],
      [
        "à¯Ī",
        "."
      ],
      [
        "à®¯",
        "à®¤"
      ],
      [
        "Ġa",
        "pp"
      ],
      [
        "Ġa",
        "bou"
      ],
      [
        "Ġa",
        "cross"
      ],
      [
        "à®±",
        "à®¨"
      ],
      [
        "à¤¯",
        "à¤°"
      ],
      [
        "Ġà¤¹",
        "à¤°"
      ],
      [
        "Ġà¤¹",
        "à¤«"
      ],
      [
        "Ġà¤¸",
        "à¤®"
      ],
      [
        "Ġà¤¸",
        "à¤¬"
      ],
      [
        "à²¯",
        "à²²"
      ],
      [
        "à²¸",
        "à²¬"
      ],
      [
        "à²Ł",
        "à²°"
      ],
      [
        "es",
        "ter"
      ],
      [
        "à²®",
        "à²ķ"
      ],
      [
        "Ġà²¨",
        "à²Ĺ"
      ],
      [
        "Ġà²¨",
        "à²®"
      ],
      [
        "on",
        "g"
      ],
      [
        "à²ķ",
        "à²³"
      ],
      [
        "Ġà¤¬",
        "à¤¹"
      ],
      [
        "à²¡",
        "à²µ"
      ],
      [
        "Ġw",
        "or"
      ],
      [
        "Ġw",
        "it"
      ],
      [
        "Ġà®µ",
        "à®°"
      ],
      [
        "à¤¼",
        "à¤¿"
      ],
      [
        "à¤ľ",
        "à¤¹"
      ],
      [
        "Ġà®ļ",
        "à®ķ"
      ],
      [
        "à®£",
        "à®µ"
      ],
      [
        "à¥ĩà¤Ĥ",
        "à¥¤"
      ],
      [
        "Ġf",
        "l"
      ],
      [
        "Ġà®ª",
        "à®³"
      ],
      [
        "Ġà²¸",
        "à²²"
      ],
      [
        "ar",
        "t"
      ],
      [
        "Ġn",
        "ight"
      ],
      [
        "à¤ª",
        "à¤¯"
      ],
      [
        "Ġà¤¦",
        "à¤«"
      ],
      [
        "Ġà¤¨",
        "à¤¯"
      ],
      [
        "Ġà¤¨",
        "à¤ı"
      ],
      [
        "Ġm",
        "e"
      ],
      [
        "Ġm",
        "on"
      ],
      [
        "Ġm",
        "ark"
      ],
      [
        "Ġà®¨",
        "à®Ł"
      ],
      [
        "Ġà®¨",
        "à®©"
      ],
      [
        "Ġd",
        "is"
      ],
      [
        "Ġà®ħ",
        "à®Ł"
      ],
      [
        "Ġà®ħ",
        "à®©"
      ],
      [
        "Ġà²ķ",
        "à²³"
      ],
      [
        "Ġe",
        "ven"
      ],
      [
        "Ġe",
        "lect"
      ],
      [
        "Ġà²¤",
        "à²¨"
      ],
      [
        "Ġà²¤",
        "à²¡à²µ"
      ],
      [
        "Ġà²¹",
        "à²µ"
      ],
      [
        "as",
        "e"
      ],
      [
        "as",
        "t"
      ],
      [
        "ou",
        "sand"
      ],
      [
        "Ġh",
        "is"
      ],
      [
        "Ġh",
        "our"
      ],
      [
        "Ġh",
        "ave"
      ],
      [
        "at",
        "e"
      ],
      [
        "at",
        "er"
      ],
      [
        "at",
        "ch"
      ],
      [
        "Ġl",
        "ast"
      ],
      [
        "Ġà²¬",
        "à²°"
      ],
      [
        "Ġth",
        "ousand"
      ],
      [
        "à¤ĩ",
        "à¤¨"
      ],
      [
        "à®ħ",
        "à®¤"
      ],
      [
        "à³Ĭ",
        "à²Ĥ"
      ],
      [
        "ay",
        "ed"
      ],
      [
        "Ġà®ĩà®°",
        "à®£"
      ],
      [
        "à®ĩ",
        "à®©"
      ],
      [
        "à²ª",
        "à²¨"
      ],
      [
        "Ġà®İ",
        "à®Ļ"
      ],
      [
        "Ġy",
        "ou"
      ],
      [
        "Ġy",
        "our"
      ],
      [
        "Ġin",
        "t"
      ],
      [
        "à²ħà²µ",
        "à²°"
      ],
      [
        "à¤¶",
        "à¤¨"
      ],
      [
        "Ġà¤ķà¤°",
        "à¤¨"
      ],
      [
        "à®ħà®µ",
        "à®°"
      ],
      [
        "et",
        "ter"
      ],
      [
        "Ġà®ī",
        "à®³"
      ],
      [
        "Ġà®ī",
        "à®£à®µ"
      ],
      [
        "Ġà²ĩ",
        "à²¦"
      ],
      [
        "Ġà¤µ",
        "à¤ľà¤¹"
      ],
      [
        "Ġà¤¶",
        "à¤¹à¤°"
      ],
      [
        "mp",
        "any"
      ],
      [
        "Ġbe",
        "for"
      ],
      [
        "Ġco",
        "mpany"
      ],
      [
        "Ġex",
        "p"
      ],
      [
        "à²¶",
        "à²Ĺà²³à²¨"
      ],
      [
        "Ġà²İ",
        "à²°à²¡"
      ],
      [
        "à²°à²ķ",
        "à²Ł"
      ],
      [
        "us",
        "e"
      ],
      [
        "à®İ",
        "à®©"
      ],
      [
        "Ġà²«",
        "à²²"
      ],
      [
        "Ġsp",
        "ec"
      ],
      [
        "Ġcit",
        "y"
      ],
      [
        "Ġpl",
        "ay"
      ],
      [
        "Ġannounc",
        "ed"
      ],
      [
        "Ple",
        "ase"
      ],
      [
        "ci",
        "ent"
      ],
      [
        "Ġabou",
        "t"
      ],
      [
        "Ġwit",
        "h"
      ],
      [
        "Ġeven",
        "ing"
      ],
      [
        "Ġbefor",
        "e"
      ],
      [
        "C",
        "an"
      ],
      [
        "F",
        "ar"
      ],
      [
        "I",
        "n"
      ],
      [
        "M",
        "y"
      ],
      [
        "M",
        "on"
      ],
      [
        "O",
        "ur"
      ],
      [
        "V",
        "ol"
      ],
      [
        "a",
        "b"
      ],
      [
        "a",
        "d"
      ],
      [
        "a",
        "g"
      ],
      [
        "a",
        "m"
      ],
      [
        "a",
        "v"
      ],
      [
        "a",
        "mp"
      ],
      [
        "a",
        "ge"
      ],
      [
        "a",
        "use"
      ],
      [
        "b",
        "r"
      ],
      [
        "b",
        "mit"
      ],
      [
        "c",
        "he"
      ],
      [
        "c",
        "er"
      ],
      [
        "c",
        "her"
      ],
      [
        "d",
        "e"
      ],
      [
        "d",
        "u"
      ],
      [
        "d",
        "en"
      ],
      [
        "d",
        "ge"
      ],
      [
        "f",
        "f"
      ],
      [
        "f",
        "ter"
      ],
      [
        "f",
        "all"
      ],
      [
        "g",
        "u"
      ],
      [
        "g",
        "in"
      ],
      [
        "g",
        "ion"
      ],
      [
        "g",
        "ain"
      ],
      [
        "h",
        "o"
      ],
      [
        "i",
        "v"
      ],
      [
        "i",
        "x"
      ],
      [
        "i",
        "al"
      ],
      [
        "k",
        "s"
      ],
      [
        "l",
        "d"
      ],
      [
        "l",
        "p"
      ],
      [
        "l",
        "ee"
      ],
      [
        "m",
        "ed"
      ],
      [
        "m",
        "ers"
      ],
      [
        "o",
        "m"
      ],
      [
        "o",
        "ver"
      ],
      [
        "r",
        "a"
      ],
      [
        "r",
        "in"
      ],
      [
        "r",
        "en"
      ],
      [
        "s",
        "t"
      ],
      [
        "t",
        "eers"
      ],
      [
        "u",
        "t"
      ],
      [
        "u",
        "ar"
      ],
      [
        "u",
        "bmit"
      ],
      [
        "v",
        "es"
      ],
      [
        "v",
        "is"
      ],
      [
        "v",
        "el"
      ],
      [
        "w",
        "ay"
      ],
      [
        "Ġ",
        "un"
      ],
      [
        "Ġ",
        "Mon"
      ],
      [
        "à¤",
        "¢"
      ],
      [
        "à¤",
        "īà¤¸"
      ],
      [
        "à¥",
        "Į"
      ],
      [
        "Ġà¤",
        "ī"
      ],
      [
        "Ġà¤",
        "ł"
      ],
      [
        "à¥ĩ",
        "à¥¤"
      ],
      [
        "à¤°",
        "à¤¤"
      ],
      [
        "à¤°",
        "à¤¹"
      ],
      [
        "à¤°",
        "à¤®"
      ],
      [
        "Ġt",
        "r"
      ],
      [
        "Ġà¤ķ",
        "à¤²"
      ],
      [
        "à¤¿",
        "à¤Ĥ"
      ],
      [
        "Ġa",
        "ir"
      ],
      [
        "Ġa",
        "fter"
      ],
      [
        "Ġa",
        "gain"
      ],
      [
        "à¤¤",
        "à¤¨"
      ],
      [
        "à¤ķ",
        "à¤°"
      ],
      [
        "à¤ķ",
        "à¤¤"
      ],
      [
        "à¥ĭ",
        "?"
      ],
      [
        "er",
        "for"
      ],
      [
        "à¤²",
        "à¤¤"
      ],
      [
        "à¤¯",
        "à¤¨"
      ],
      [
        "à¤¯",
        "à¤ķ"
      ],
      [
        "à¤¯",
        "à¤®"
      ],
      [
        "Ġà¤¹",
        "à¤®"
      ],
      [
        "Ġà¤¹",
        "à¤ľ"
      ],
      [
        "Ġà¤¸",
        "à¤ķà¤¤"
      ],
      [
        "à¤¹",
        "à¤¤à¤°"
      ],
      [
        "Ġthe",
        "ir"
      ],
      [
        "Ġà¤®",
        "à¤¦"
      ],
      [
        "is",
        "e"
      ],
      [
        "is",
        "h"
      ],
      [
        "is",
        "t"
      ],
      [
        "Ġs",
        "er"
      ],
      [
        "Ġs",
        "tor"
      ],
      [
        "Ġs",
        "end"
      ],
      [
        "Ġs",
        "lee"
      ],
      [
        "Ġs",
        "ubmit"
      ],
      [
        "à¤¸",
        "à¤°"
      ],
      [
        "à¤®",
        "à¤°"
      ],
      [
        "à¤®",
        "à¤¤"
      ],
      [
        "on",
        "cer"
      ],
      [
        "Ġà¤¬",
        "à¤Ĺ"
      ],
      [
        "Ġà¤¬",
        "à¤¢"
      ],
      [
        "Ġw",
        "on"
      ],
      [
        "Ġc",
        "oncer"
      ],
      [
        "Ġf",
        "ro"
      ],
      [
        "Ġf",
        "est"
      ],
      [
        "ar",
        "ed"
      ],
      [
        "Ġn",
        "o"
      ],
      [
        "Ġn",
        "ot"
      ],
      [
        "Ġà¤¨",
        "à¤¹"
      ],
      [
        "Ġà¤¨",
        "à¤Ī"
      ],
      [
        "Ġb",
        "an"
      ],
      [
        "Ġb",
        "at"
      ],
      [
        "Ġb",
        "ec"
      ],
      [
        "Ġb",
        "ri"
      ],
      [
        "Ġm",
        "atch"
      ],
      [
        "Ġo",
        "ver"
      ],
      [
        "an",
        "t"
      ],
      [
        "an",
        "gu"
      ],
      [
        "Ġd",
        "el"
      ],
      [
        "Ġd",
        "oc"
      ],
      [
        "Ġd",
        "ow"
      ],
      [
        "Ġd",
        "rin"
      ],
      [
        "Ġr",
        "ain"
      ],
      [
        "Ġr",
        "iver"
      ],
      [
        "Ġe",
        "ight"
      ],
      [
        "Ġe",
        "ff"
      ],
      [
        "Ġh",
        "igh"
      ],
      [
        "à¤Ĺ",
        "à¤Ń"
      ],
      [
        "at",
        "ed"
      ],
      [
        "at",
        "ion"
      ],
      [
        "Ġl",
        "i"
      ],
      [
        "Ġl",
        "ear"
      ],
      [
        "Ġl",
        "ights"
      ],
      [
        "Ġl",
        "ate"
      ],
      [
        "Ġl",
        "etter"
      ],
      [
        "Ġl",
        "angu"
      ],
      [
        "Ġà¤ħ",
        "à¤¸"
      ],
      [
        "Ġà¤ħ",
        "à¤¡"
      ],
      [
        "Ġà¤ħ",
        "à¤Ĺà¤²"
      ],
      [
        "Ġth",
        "an"
      ],
      [
        "à¤¬",
        "à¤¹"
      ],
      [
        "à¤¬",
        "à¤ļ"
      ],
      [
        "Ġà¤²",
        "à¤Ĺà¤Ń"
      ],
      [
        "à¤ĩ",
        "à¤Ł"
      ],
      [
        "ver",
        "al"
      ],
      [
        "Ġp",
        "ro"
      ],
      [
        "Ġp",
        "erfor"
      ],
      [
        "Ġof",
        "f"
      ],
      [
        "Ġof",
        "fic"
      ],
      [
        "Ġà¤¤",
        "à¤ķ"
      ],
      [
        "ter",
        "y"
      ],
      [
        "Ġy",
        "ester"
      ],
      [
        "Ġà¤ľ",
        "à¤²"
      ],
      [
        "Ġà¤Ĺ",
        "à¤ı"
      ],
      [
        "Ġà¤Ĺ",
        "à¤Ī"
      ],
      [
        "Ġà¤ķà¤°",
        "à¤¤"
      ],
      [
        "ion",
        "s"
      ],
      [
        "tor",
        "s"
      ],
      [
        "tor",
        "y"
      ],
      [
        "Ġbe",
        "en"
      ],
      [
        "Ġhe",
        "av"
      ],
      [
        "Ġhe",
        "lp"
      ],
      [
        "Ġon",
        "e"
      ],
      [
        "oc",
        "al"
      ],
      [
        "un",
        "teers"
      ],
      [
        "Ġà¤Ĩ",
        "à¤ı"
      ],
      [
        "Ġà¤ĩ",
        "à¤²"
      ],
      [
        "Ġà¤ĩ",
        "à¤¸"
      ],
      [
        "Ġst",
        "art"
      ],
      [
        "Ġse",
        "veral"
      ],
      [
        "Ġre",
        "gion"
      ],
      [
        "à¤Ľ",
        "à¤²"
      ],
      [
        "Ġal",
        "ong"
      ],
      [
        "Ġch",
        "ild"
      ],
      [
        "Ġmor",
        "e"
      ],
      [
        "Ġmor",
        "ning"
      ],
      [
        "get",
        "ab"
      ],
      [
        "hon",
        "e"
      ],
      [
        "Ġit",
        "s"
      ],
      [
        "Ġve",
        "getab"
      ],
      [
        "Ġà¤¯",
        "à¤¹"
      ],
      [
        "Ġtw",
        "o"
      ],
      [
        "Ġfl",
        "ights"
      ],
      [
        "Ġmon",
        "th"
      ],
      [
        "Ġmark",
        "et"
      ],
      [
        "Ġdis",
        "c"
      ],
      [
        "Ġhour",
        "s"
      ],
      [
        "Ġthousand",
        "s"
      ],
      [
        "Ġint",
        "o"
      ],
      [
        "Ġspec",
        "ial"
      ],
      [
        "Far",
        "mers"
      ],
      [
        "Vol",
        "unteers"
      ],
      [
        "ag",
        "es"
      ],
      [
        "du",
        "c"
      ],
      [
        "gin",
        "eers"
      ],
      [
        "iv",
        "al"
      ],
      [
        "ĠMon",
        "day"
      ],
      [
        "à¤īà¤¸",
        "à¤¨"
      ],
      [
        "Ġair",
        "port"
      ],
      [
        "Ġà¤®à¤¦",
        "à¤¦"
      ],
      [
        "Ġslee",
        "p"
      ],
      [
        "Ġconcer",
        "t"
      ],
      [
        "Ġfro",
        "m"
      ],
      [
        "Ġfest",
        "ival"
      ],
      [
        "Ġban",
        "k"
      ],
      [
        "Ġbat",
        "tery"
      ],
      [
        "Ġbec",
        "ause"
      ],
      [
        "Ġbri",
        "dge"
      ],
      [
        "Ġdel",
        "ayed"
      ],
      [
        "Ġdow",
        "n"
      ],
      [
        "Ġhigh",
        "way"
      ],
      [
        "Ġlangu",
        "ages"
      ],
      [
        "Ġà¤²à¤Ĺà¤Ń",
        "à¤Ĺ"
      ],
      [
        "Ġperfor",
        "med"
      ],
      [
        "Ġoffic",
        "e"
      ],
      [
        "Ġyester",
        "day"
      ],
      [
        "Ġstart",
        "up"
      ],
      [
        "Ġvegetab",
        "les"
      ],
      [
        "ī",
        "à²¦"
      ],
      [
        "ī",
        "à®Ļ"
      ],
      [
        "Ĭ",
        "à²Ł"
      ],
      [
        "Ĳ",
        "à²¦"
      ],
      [
        "Ĳ",
        "à®¨"
      ],
      [
        "ĵ",
        "à²¦"
      ],
      [
        "ľ",
        "à®©"
      ],
      [
        "à®",
        "ľ"
      ],
      [
        "à®",
        "īà®Ļ"
      ],
      [
        "à²",
        "«"
      ],
      [
        "à²",
        "ĩ"
      ],
      [
        "à²",
        "ŀ"
      ],
      [
        "à¯į",
        "?"
      ],
      [
        "Ġà®",
        "²"
      ],
      [
        "Ġà®",
        "Ł"
      ],
      [
        "Ġà®",
        "Ĳà®¨"
      ],
      [
        "Ġà®",
        "ľà®©"
      ],
      [
        "Ġà²",
        "¡"
      ],
      [
        "Ġà²",
        "¯"
      ],
      [
        "Ġà²",
        "²"
      ],
      [
        "Ġà²",
        "ħà²µ"
      ],
      [
        "Ġà²",
        "īà²¦"
      ],
      [
        "Ġà²",
        "Ĭà²Ł"
      ],
      [
        "Ġà²",
        "Ĳà²¦"
      ],
      [
        "Ġà²",
        "ĵà²¦"
      ],
      [
        "à®ķ",
        "à®¤"
      ],
      [
        "à®ķ",
        "à®Ł"
      ],
      [
        "à®ķ",
        "à®±"
      ],
      [
        "à®ķ",
        "à®°à®®"
      ],
      [
        "à®¤",
        "à®Ł"
      ],
      [
        "à®¤",
        "à®µ"
      ],
      [
        "à®¤",
        "à®ª"
      ],
      [
        "à²¨",
        "à²¦"
      ],
      [
        "à²¨",
        "à²¨à²Ĺ"
      ],
      [
        "à²¨",
        "à²¦à²²"
      ],
      [
        "à²¨",
        "à²µà²°"
      ],
      [
        "à³Ĩ",
        "?"
      ],
      [
        "à²°",
        "à²Ĺ"
      ],
      [
        "à²°",
        "à²£"
      ],
      [
        "à²°",
        "à²ľ"
      ],
      [
        "à²°",
        "à²¦à²²"
      ],
      [
        "à²°",
        "à²µà²¨"
      ],
      [
        "à®Ł",
        "à®®"
      ],
      [
        "à®Ł",
        "à®ª"
      ],
      [
        "à®Ł",
        "à®Ļ"
      ],
      [
        "à²¦",
        "à²¦"
      ],
      [
        "à®®",
        "à®°"
      ],
      [
        "à®®",
        "à®²"
      ],
      [
        "à®®",
        "à®´"
      ],
      [
        "à®°",
        "à®¸"
      ],
      [
        "à²¤",
        "à²Ĺ"
      ],
      [
        "à²¤",
        "à²µ"
      ],
      [
        "à²¤",
        "à²®"
      ],
      [
        "à®²",
        "à®ķ"
      ],
      [
        "à®²",
        "à®¤"
      ],
      [
        "à®²",
        "à®²"
      ],
      [
        "à²²",
        "à²¦"
      ],
      [
        "à²²",
        "à²¸"
      ],
      [
        "à²²",
        "à²¦à²²"
      ],
      [
        "à²²",
        "à²¯à²µ"
      ],
      [
        "à®µ",
        "à®©"
      ],
      [
        "à®µ",
        "à®£"
      ],
      [
        "à®µ",
        "à®©à®®"
      ],
      [
        "à®µ",
        "à®©à®¤"
      ],
      [
        "à®¯",
        "à®®"
      ],
      [
        "à®¯",
        "à®°"
      ],
      [
        "à®¯",
        "à®²"
      ],
      [
        "à®³",
        "à®ķ"
      ],
      [
        "à®±",
        "à®ķ"
      ],
      [
        "à®¨",
        "à®ķà®°"
      ],
      [
        "à²¯",
        "à²°"
      ],
      [
        "à²¯",
        "à²ķ"
      ],
      [
        "à²¸",
        "à²ķ"
      ],
      [
        "à²¸",
        "à²Ń"
      ],
      [
        "à²Ł",
        "à²µ"
      ],
      [
        "à²Ł",
        "à²£"
      ],
      [
        "à®ª",
        "à®¤"
      ],
      [
        "à®ª",
        "à®®"
      ],
      [
        "à®ª",
        "à®¯"
      ],
      [
        "à²³",
        "à²²"
      ],
      [
        "Ġà®®",
        "à®°"
      ],
      [
        "Ġà®®",
        "à®´"
      ],
      [
        "Ġà®®",
        "à®±à®¨"
      ],
      [
        "à²®",
        "à²µ"
      ],
      [
        "à²®",
        "à²³"
      ],
      [
        "Ġà²¨",
        "à²¨"
      ],
      [
        "Ġà²¨",
        "à²¡"
      ],
      [
        "Ġà®ķ",
        "à®°"
      ],
      [
        "Ġà®ķ",
        "à®±"
      ],
      [
        "Ġà®ķ",
        "à®ª"
      ],
      [
        "Ġà®ķ",
        "à®µà®°"
      ],
      [
        "à²¡",
        "à²²"
      ],
      [
        "à²¡",
        "à²¬"
      ],
      [
        "Ġà®µ",
        "à®´"
      ],
      [
        "Ġà®¤",
        "à®©"
      ],
      [
        "Ġà®¤",
        "à®¨"
      ],
      [
        "Ġà®¤",
        "à®£"
      ],
      [
        "Ġà®¤",
        "à®©à®¤"
      ],
      [
        "Ġà®¤",
        "à®¯à®µ"
      ],
      [
        "Ġà®ļ",
        "à®¤"
      ],
      [
        "Ġà®ļ",
        "à®¯"
      ],
      [
        "Ġà®ļ",
        "à®®à®°"
      ],
      [
        "Ġà²®",
        "à²¨"
      ],
      [
        "Ġà²®",
        "à²°"
      ],
      [
        "Ġà²®",
        "à²³"
      ],
      [
        "Ġà®ª",
        "à®Ł"
      ],
      [
        "Ġà®ª",
        "à®°"
      ],
      [
        "Ġà®ª",
        "à®£"
      ],
      [
        "Ġà®¨",
        "à®ķà®°"
      ],
      [
        "Ġà®¨",
        "à®ķà®°à®®"
      ],
      [
        "à²ļ",
        "à²°"
      ],
      [
        "Ġà®ħ",
        "à®¤"
      ],
      [
        "Ġà®ħ",
        "à®°"
      ],
      [
        "Ġà®ħ",
        "à®£"
      ],
      [
        "Ġà®ħ",
        "à®®à®²"
      ],
      [
        "Ġà®ħ",
        "à®µà®©"
      ],
      [
        "Ġà²ķ",
        "à²²"
      ],
      [
        "Ġà²ķ",
        "à²ª"
      ],
      [
        "Ġà²ķ",
        "à²µà²°"
      ],
      [
        "Ġà²¤",
        "à²°à²ķ"
      ],
      [
        "Ġà²¹",
        "à²¬"
      ],
      [
        "à®ļ",
        "à®®"
      ],
      [
        "à®ļ",
        "à®²"
      ],
      [
        "Ġà®ĩ",
        "à®²"
      ],
      [
        "Ġà®ĩ",
        "à®©"
      ],
      [
        "Ġà®ĩ",
        "à®¨"
      ],
      [
        "Ġà®ĩ",
        "à®ļ"
      ],
      [
        "à²¹",
        "à²²"
      ],
      [
        "Ġà²¬",
        "à²Ĺ"
      ],
      [
        "Ġà²¬",
        "à²¸"
      ],
      [
        "Ġà²¬",
        "à²³"
      ],
      [
        "Ġà²¬",
        "à²¹"
      ],
      [
        "à²¬",
        "à²µà²¨"
      ],
      [
        "Ġà²ª",
        "à²°"
      ],
      [
        "Ġà²ª",
        "à²¤"
      ],
      [
        "à®ħ",
        "à®±"
      ],
      [
        "Ġà®ĩà®°",
        "à®µ"
      ],
      [
        "à®´",
        "à®®"
      ],
      [
        "à²ª",
        "à²°"
      ],
      [
        "à²ª",
        "à²¤"
      ],
      [
        "à²ª",
        "à²¡"
      ],
      [
        "à²ª",
        "à²Ĺà²³à²¨"
      ],
      [
        "Ġà®İ",
        "à®¤"
      ],
      [
        "Ġà®İ",
        "à®Ł"
      ],
      [
        "Ġà®İ",
        "à®©"
      ],
      [
        "Ġà²µ",
        "à²°"
      ],
      [
        "Ġà²µ",
        "à²°à²¦"
      ],
      [
        "Ġà®ī",
        "à®Ļ"
      ],
      [
        "Ġà®ī",
        "à®¤à®µ"
      ],
      [
        "Ġà®ī",
        "à®¯à®°"
      ],
      [
        "Ġà²°",
        "à²¸"
      ],
      [
        "Ġà²°",
        "à²ľ"
      ],
      [
        "Ġà²ĩ",
        "à²²"
      ],
      [
        "Ġà²ĩ",
        "à²ª"
      ],
      [
        "Ġà²ĩ",
        "à²·"
      ],
      [
        "à²£",
        "à²¦"
      ],
      [
        "à²£",
        "à²µà²¨"
      ],
      [
        "à²ľ",
        "à²¨"
      ],
      [
        "Ġà®Ĵ",
        "à®¤"
      ],
      [
        "Ġà®Ĵ",
        "à®µ"
      ],
      [
        "Ġà²¦",
        "à²Ł"
      ],
      [
        "Ġà²¦",
        "à²¯à²µ"
      ],
      [
        "Ġà²Ĺ",
        "à²¡"
      ],
      [
        "à²¨à²Ĺ",
        "à²°à²¦à²²"
      ],
      [
        "à²·",
        "à²Ĺà²³"
      ],
      [
        "Ġà²Ĩ",
        "à²Ĺ"
      ],
      [
        "Ġà²Ĩ",
        "à²«"
      ],
      [
        "Ġà²Ĩ",
        "à²¸à²ķ"
      ],
      [
        "Ġà²Ĩ",
        "à²Łà²µ"
      ],
      [
        "Ġà²Ĩ",
        "à²ļà²°"
      ],
      [
        "à²¦à²°",
        "à²°"
      ],
      [
        "à®µà®°",
        "à®¤"
      ],
      [
        "à®ªà®Ł",
        "à®¤"
      ],
      [
        "à³Ī",
        "à²Ĥ"
      ],
      [
        "Ġà²İ",
        "à²·"
      ],
      [
        "Ġà²Ĵ",
        "à²¬"
      ],
      [
        "Ġà²ľ",
        "à²¨à²µà²°"
      ],
      [
        "Ġà®ķà®Ł",
        "à®µ"
      ],
      [
        "à®İ",
        "à®©à®ķ"
      ],
      [
        "Ġà®°",
        "à®¯"
      ],
      [
        "Ġà®Ĩ",
        "à®ķ"
      ],
      [
        "Ġà®Ĩ",
        "à®£"
      ],
      [
        "Ġà®Ĩ",
        "à®µà®£"
      ],
      [
        "Ġà²ħ",
        "à²¨"
      ],
      [
        "Ġà²ħ",
        "à²¤"
      ],
      [
        "Ġà²ħ",
        "à²Ń"
      ],
      [
        "Ġà²ļ",
        "à²¹"
      ],
      [
        "à²¥",
        "à²Ĺ"
      ],
      [
        "à²ĸ",
        "à²²"
      ],
      [
        "Ġà²¶",
        "à²¬"
      ],
      [
        "Ġà²ĸ",
        "à²°"
      ],
      [
        "à®¤à®°",
        "à®°"
      ],
      [
        "à®¤à®©",
        "à®°"
      ],
      [
        "à²¸à²¬",
        "à²²"
      ],
      [
        "Ġà²¨à²Ĺ",
        "à²°"
      ],
      [
        "Ġà²¨à²Ĺ",
        "à²°à²¦"
      ],
      [
        "Ġà®µà®°",
        "à®µ"
      ],
      [
        "Ġà²¸à²²",
        "à²¹"
      ],
      [
        "Ġà®¨à®Ł",
        "à®¨"
      ],
      [
        "Ġà²¬à²°",
        "à²²"
      ],
      [
        "Ġà®īà®£à®µ",
        "à®ķà®¤"
      ],
      [
        "Ġà®ľà®©",
        "à®µà®°"
      ],
      [
        "Ġà²ħà²µ",
        "à²¨"
      ],
      [
        "à®¨à®ķà®°",
        "à®¤"
      ],
      [
        "à²¯à²ķ",
        "à²µ"
      ],
      [
        "à²¡à²¬",
        "à²²"
      ],
      [
        "Ġà®Ĩà®µà®£",
        "à®¤"
      ],
      [
        "'",
        "s"
      ],
      [
        "B",
        "en"
      ],
      [
        "C",
        "h"
      ],
      [
        "D",
        "i"
      ],
      [
        "D",
        "el"
      ],
      [
        "D",
        "oc"
      ],
      [
        "E",
        "n"
      ],
      [
        "F",
        "ri"
      ],
      [
        "H",
        "ea"
      ],
      [
        "I",
        "t"
      ],
      [
        "J",
        "an"
      ],
      [
        "L",
        "ocal"
      ],
      [
        "P",
        "at"
      ],
      [
        "P",
        "ow"
      ],
      [
        "P",
        "ric"
      ],
      [
        "R",
        "e"
      ],
      [
        "R",
        "es"
      ],
      [
        "R",
        "ain"
      ],
      [
        "S",
        "t"
      ],
      [
        "S",
        "un"
      ],
      [
        "S",
        "cient"
      ],
      [
        "T",
        "h"
      ],
      [
        "T",
        "ra"
      ],
      [
        "W",
        "e"
      ],
      [
        "W",
        "h"
      ],
      [
        "W",
        "ater"
      ],
      [
        "a",
        "k"
      ],
      [
        "a",
        "is"
      ],
      [
        "a",
        "ir"
      ],
      [
        "a",
        "ur"
      ],
      [
        "b",
        "it"
      ],
      [
        "b",
        "il"
      ],
      [
        "b",
        "all"
      ],
      [
        "b",
        "ac"
      ],
      [
        "c",
        "k"
      ],
      [
        "c",
        "l"
      ],
      [
        "c",
        "lo"
      ],
      [
        "c",
        "re"
      ],
      [
        "c",
        "ell"
      ],
      [
        "c",
        "ise"
      ],
      [
        "d",
        "i"
      ],
      [
        "d",
        "l"
      ],
      [
        "d",
        "y"
      ],
      [
        "d",
        "er"
      ],
      [
        "d",
        "ed"
      ],
      [
        "d",
        "ing"
      ],
      [
        "d",
        "ul"
      ],
      [
        "d",
        "get"
      ],
      [
        "e",
        "w"
      ],
      [
        "e",
        "ed"
      ],
      [
        "e",
        "at"
      ],
      [
        "e",
        "ts"
      ],
      [
        "e",
        "br"
      ],
      [
        "e",
        "vel"
      ],
      [
        "f",
        "e"
      ],
      [
        "f",
        "ul"
      ],
      [
        "f",
        "fic"
      ],
      [
        "g",
        "y"
      ],
      [
        "g",
        "al"
      ],
      [
        "g",
        "ul"
      ],
      [
        "g",
        "ot"
      ],
      [
        "h",
        "n"
      ],
      [
        "h",
        "ar"
      ],
      [
        "h",
        "ic"
      ],
      [
        "i",
        "et"
      ],
      [
        "i",
        "ve"
      ],
      [
        "i",
        "mp"
      ],
      [
        "i",
        "fic"
      ],
      [
        "i",
        "de"
      ],
      [
        "i",
        "ew"
      ],
      [
        "j",
        "ect"
      ],
      [
        "k",
        "ed"
      ],
      [
        "k",
        "et"
      ],
      [
        "l",
        "ain"
      ],
      [
        "l",
        "im"
      ],
      [
        "l",
        "ared"
      ],
      [
        "l",
        "ated"
      ],
      [
        "m",
        "is"
      ],
      [
        "m",
        "or"
      ],
      [
        "m",
        "en"
      ],
      [
        "m",
        "ent"
      ],
      [
        "m",
        "ot"
      ],
      [
        "m",
        "end"
      ],
      [
        "m",
        "mit"
      ],
      [
        "m",
        "os"
      ],
      [
        "m",
        "ester"
      ],
      [
        "m",
        "art"
      ],
      [
        "n",
        "a"
      ],
      [
        "n",
        "er"
      ],
      [
        "n",
        "ow"
      ],
      [
        "n",
        "ment"
      ],
      [
        "o",
        "d"
      ],
      [
        "o",
        "es"
      ],
      [
        "o",
        "on"
      ],
      [
        "o",
        "ir"
      ],
      [
        "o",
        "lo"
      ],
      [
        "o",
        "ot"
      ],
      [
        "o",
        "om"
      ],
      [
        "o",
        "bil"
      ],
      [
        "o",
        "ked"
      ],
      [
        "p",
        "s"
      ],
      [
        "p",
        "it"
      ],
      [
        "p",
        "ly"
      ],
      [
        "p",
        "ared"
      ],
      [
        "p",
        "hone"
      ],
      [
        "p",
        "air"
      ],
      [
        "q",
        "uar"
      ],
      [
        "r",
        "t"
      ],
      [
        "r",
        "on"
      ],
      [
        "r",
        "ing"
      ],
      [
        "r",
        "ee"
      ],
      [
        "r",
        "up"
      ],
      [
        "r",
        "and"
      ],
      [
        "r",
        "ac"
      ],
      [
        "s",
        "w"
      ],
      [
        "s",
        "on"
      ],
      [
        "s",
        "it"
      ],
      [
        "s",
        "ions"
      ],
      [
        "s",
        "lated"
      ],
      [
        "s",
        "oon"
      ],
      [
        "t",
        "y"
      ],
      [
        "t",
        "ing"
      ],
      [
        "t",
        "ee"
      ],
      [
        "t",
        "her"
      ],
      [
        "t",
        "aur"
      ],
      [
        "t",
        "rac"
      ],
      [
        "u",
        "e"
      ],
      [
        "u",
        "it"
      ],
      [
        "u",
        "ts"
      ],
      [
        "u",
        "el"
      ],
      [
        "u",
        "all"
      ],
      [
        "u",
        "den"
      ],
      [
        "u",
        "dy"
      ],
      [
        "v",
        "y"
      ],
      [
        "v",
        "ed"
      ],
      [
        "v",
        "ar"
      ],
      [
        "v",
        "ent"
      ],
      [
        "v",
        "iew"
      ],
      [
        "v",
        "oir"
      ],
      [
        "w",
        "al"
      ],
      [
        "w",
        "ee"
      ],
      [
        "w",
        "ers"
      ],
      [
        "w",
        "ave"
      ],
      [
        "y",
        "mp"
      ],
      [
        "y",
        "cl"
      ],
      [
        "Ġ",
        "or"
      ],
      [
        "Ġ",
        "en"
      ],
      [
        "Ġ",
        "up"
      ],
      [
        "Ġ",
        "us"
      ],
      [
        "Ġ",
        "In"
      ],
      [
        "Ġ",
        "vis"
      ],
      [
        "Ġ",
        "Ben"
      ],
      [
        "Ġ",
        "Del"
      ],
      [
        "Ġ",
        "Fri"
      ],
      [
        "Ġ",
        "Jan"
      ],
      [
        "Ġ",
        "Pat"
      ],
      [
        "Ġ",
        "Sun"
      ],
      [
        "Ġ",
        "imp"
      ],
      [
        "Ġ",
        "quar"
      ],
      [
        "Ġ",
        "var"
      ],
      [
        "ħ",
        "à¤Ĺà¤²"
      ],
      [
        "Ĩ",
        "à¤ľ"
      ],
      [
        "Ĳ",
        "à¤ª"
      ],
      [
        "à¤",
        "ŀ"
      ],
      [
        "à¤",
        "ħà¤Ĺà¤²"
      ],
      [
        "à¤",
        "Ĩà¤ľ"
      ],
      [
        "Ġà¤",
        "Ľ"
      ],
      [
        "Ġà¤",
        "īà¤¸"
      ],
      [
        "Ġà¤",
        "Ĳà¤ª"
      ],
      [
        "à¤¾",
        "?"
      ],
      [
        "à¤¾",
        "à¤Ĥ"
      ],
      [
        "à¤°",
        "à¤¸"
      ],
      [
        "à¤°",
        "à¤ľ"
      ],
      [
        "à¤°",
        "à¤µ"
      ],
      [
        "à¤°",
        "à¤¦"
      ],
      [
        "à¤°",
        "à¤Ń"
      ],
      [
        "he",
        "f"
      ],
      [
        "he",
        "n"
      ],
      [
        "à¥Ģ",
        ","
      ],
      [
        "Ġt",
        "en"
      ],
      [
        "Ġt",
        "ec"
      ],
      [
        "Ġt",
        "re"
      ],
      [
        "Ġt",
        "ur"
      ],
      [
        "Ġt",
        "est"
      ],
      [
        "Ġt",
        "ell"
      ],
      [
        "Ġt",
        "im"
      ],
      [
        "Ġt",
        "ak"
      ],
      [
        "Ġà¤ķ",
        "à¤¹"
      ],
      [
        "Ġà¤ķ",
        "à¤ª"
      ],
      [
        "Ġà¤ķ",
        "à¤µà¤°"
      ],
      [
        "à¤¨",
        "à¤¸"
      ],
      [
        "à¤¨",
        "à¤Ł"
      ],
      [
        "à¤¨",
        "à¤ı"
      ],
      [
        "à¤¨",
        "à¤Ī"
      ],
      [
        "à¤¨",
        "à¤µà¤°"
      ],
      [
        "Ġa",
        "s"
      ],
      [
        "Ġa",
        "ver"
      ],
      [
        "Ġa",
        "ss"
      ],
      [
        "Ġa",
        "rt"
      ],
      [
        "à¤ķ",
        "à¤¡"
      ],
      [
        "à¤ķ",
        "à¤®à¤°"
      ],
      [
        "er",
        "a"
      ],
      [
        "er",
        "e"
      ],
      [
        "er",
        "ing"
      ],
      [
        "er",
        "cise"
      ],
      [
        "er",
        "voir"
      ],
      [
        "à¤²",
        "à¤¨"
      ],
      [
        "à¤²",
        "à¤¯"
      ],
      [
        "à¤¯",
        "à¤¸"
      ],
      [
        "à¤¯",
        "à¤¯à¤¨"
      ],
      [
        "Ġà¤¹",
        "à¤µ"
      ],
      [
        "in",
        "e"
      ],
      [
        "in",
        "ut"
      ],
      [
        "in",
        "ish"
      ],
      [
        "in",
        "ner"
      ],
      [
        "Ġà¤¸",
        "à¤°"
      ],
      [
        "Ġà¤¸",
        "à¤²"
      ],
      [
        "Ġà¤¸",
        "à¤ª"
      ],
      [
        "Ġà¤¸",
        "à¤«"
      ],
      [
        "Ġà¤¸",
        "à¤Ń"
      ],
      [
        "à¤¹",
        "à¤¨"
      ],
      [
        "à¤¹",
        "à¤®"
      ],
      [
        "à¤¹",
        "à¤µ"
      ],
      [
        "Ġà¤®",
        "à¤¨"
      ],
      [
        "Ġà¤®",
        "à¤¹"
      ],
      [
        "Ġà¤®",
        "à¤°à¤®"
      ],
      [
        "Ġà¤®",
        "à¤Ľà¤²"
      ],
      [
        "es",
        "ign"
      ],
      [
        "es",
        "son"
      ],
      [
        "is",
        "ts"
      ],
      [
        "is",
        "ter"
      ],
      [
        "Ġs",
        "ing"
      ],
      [
        "Ġs",
        "up"
      ],
      [
        "Ġs",
        "ign"
      ],
      [
        "Ġs",
        "ell"
      ],
      [
        "Ġs",
        "cient"
      ],
      [
        "Ġs",
        "ho"
      ],
      [
        "Ġs",
        "ix"
      ],
      [
        "Ġs",
        "har"
      ],
      [
        "Ġs",
        "mart"
      ],
      [
        "Ġs",
        "now"
      ],
      [
        "Ġs",
        "wee"
      ],
      [
        "Ġs",
        "ymp"
      ],
      [
        "Ġs",
        "ister"
      ],
      [
        "à¤¸",
        "à¤®"
      ],
      [
        "à¤¸",
        "à¤µà¤°"
      ],
      [
        "Ġà¤ª",
        "à¤Ł"
      ],
      [
        "or",
        "d"
      ],
      [
        "or",
        "s"
      ],
      [
        "à¤®",
        "à¤µ"
      ],
      [
        "The",
        "y"
      ],
      [
        "on",
        "e"
      ],
      [
        "on",
        "al"
      ],
      [
        "Ġà¤¬",
        "à¤ļ"
      ],
      [
        "Ġw",
        "al"
      ],
      [
        "Ġw",
        "ent"
      ],
      [
        "Ġw",
        "all"
      ],
      [
        "Ġw",
        "ell"
      ],
      [
        "Ġw",
        "ater"
      ],
      [
        "Ġw",
        "atch"
      ],
      [
        "Ġw",
        "eat"
      ],
      [
        "Ġw",
        "hen"
      ],
      [
        "Ġw",
        "ere"
      ],
      [
        "Ġc",
        "an"
      ],
      [
        "Ġc",
        "ou"
      ],
      [
        "Ġc",
        "el"
      ],
      [
        "Ġc",
        "up"
      ],
      [
        "Ġc",
        "ounc"
      ],
      [
        "Ġc",
        "le"
      ],
      [
        "Ġc",
        "ric"
      ],
      [
        "Ġc",
        "ross"
      ],
      [
        "Ġc",
        "am"
      ],
      [
        "Ġc",
        "lim"
      ],
      [
        "Ġc",
        "ycl"
      ],
      [
        "Ġc",
        "hef"
      ],
      [
        "en",
        "u"
      ],
      [
        "à¤¼",
        "à¥ĩ"
      ],
      [
        "à¤¼",
        "à¥ĭ"
      ],
      [
        "à¤¼",
        "à¥Ī"
      ],
      [
        "à¤¼",
        "à¥Ģà¤Ĥ"
      ],
      [
        "à¤ľ",
        "à¤²"
      ],
      [
        "à¤ľ",
        "à¤¬"
      ],
      [
        "à¤Ł",
        "à¤¬"
      ],
      [
        "à¤Ł",
        "à¤«"
      ],
      [
        "Ġf",
        "as"
      ],
      [
        "Ġf",
        "ir"
      ],
      [
        "Ġf",
        "lo"
      ],
      [
        "Ġf",
        "un"
      ],
      [
        "Ġf",
        "ri"
      ],
      [
        "Ġf",
        "ac"
      ],
      [
        "Ġf",
        "ix"
      ],
      [
        "Ġf",
        "ish"
      ],
      [
        "Ġf",
        "eed"
      ],
      [
        "Ġf",
        "ive"
      ],
      [
        "Ġf",
        "oot"
      ],
      [
        "Ġf",
        "uel"
      ],
      [
        "Ġf",
        "inish"
      ],
      [
        "ar",
        "y"
      ],
      [
        "ar",
        "den"
      ],
      [
        "Ġn",
        "ort"
      ],
      [
        "à¤ª",
        "à¤°"
      ],
      [
        "à¤ª",
        "à¤¤"
      ],
      [
        "à¤ª",
        "à¤ķ"
      ],
      [
        "à¤µ",
        "à¤ķ"
      ],
      [
        "à¤µ",
        "à¤²"
      ],
      [
        "à¤µ",
        "à¤¯"
      ],
      [
        "Ġà¤¦",
        "à¤¸"
      ],
      [
        "Ġà¤¨",
        "à¤¤"
      ],
      [
        "Ġà¤¨",
        "à¤ľ"
      ],
      [
        "Ġà¤¨",
        "à¤¦"
      ],
      [
        "Ġb",
        "y"
      ],
      [
        "Ġb",
        "ro"
      ],
      [
        "Ġb",
        "el"
      ],
      [
        "Ġb",
        "est"
      ],
      [
        "Ġb",
        "etter"
      ],
      [
        "Ġb",
        "ad"
      ],
      [
        "Ġm",
        "y"
      ],
      [
        "Ġm",
        "ee"
      ],
      [
        "Ġm",
        "et"
      ],
      [
        "Ġm",
        "ur"
      ],
      [
        "Ġm",
        "ill"
      ],
      [
        "Ġm",
        "us"
      ],
      [
        "Ġm",
        "any"
      ],
      [
        "Ġm",
        "use"
      ],
      [
        "Ġm",
        "obil"
      ],
      [
        "Ġm",
        "inut"
      ],
      [
        "Ġm",
        "enu"
      ],
      [
        "Ġo",
        "ld"
      ],
      [
        "Ġo",
        "ut"
      ],
      [
        "Ġo",
        "uts"
      ],
      [
        "an",
        "ed"
      ],
      [
        "an",
        "ge"
      ],
      [
        "an",
        "ted"
      ],
      [
        "an",
        "slated"
      ],
      [
        "Ġd",
        "al"
      ],
      [
        "Ġd",
        "at"
      ],
      [
        "Ġd",
        "ay"
      ],
      [
        "Ġd",
        "ec"
      ],
      [
        "Ġd",
        "ro"
      ],
      [
        "Ġd",
        "ir"
      ],
      [
        "Ġd",
        "ur"
      ],
      [
        "Ġd",
        "ea"
      ],
      [
        "Ġd",
        "os"
      ],
      [
        "Ġd",
        "oes"
      ],
      [
        "Ġd",
        "ue"
      ],
      [
        "Ġd",
        "inner"
      ],
      [
        "Ġd",
        "esign"
      ],
      [
        "Ġr",
        "ec"
      ],
      [
        "Ġr",
        "ic"
      ],
      [
        "Ġr",
        "ul"
      ],
      [
        "Ġr",
        "ais"
      ],
      [
        "Ġr",
        "oom"
      ],
      [
        "à¤¦",
        "à¤²"
      ],
      [
        "al",
        "th"
      ],
      [
        "Ġe",
        "mp"
      ],
      [
        "Ġe",
        "vent"
      ],
      [
        "as",
        "ed"
      ],
      [
        "as",
        "sw"
      ],
      [
        "as",
        "onal"
      ],
      [
        "Ġh",
        "ir"
      ],
      [
        "Ġh",
        "ot"
      ],
      [
        "Ġh",
        "all"
      ],
      [
        "Ġh",
        "im"
      ],
      [
        "Ġh",
        "os"
      ],
      [
        "at",
        "h"
      ],
      [
        "at",
        "wave"
      ],
      [
        "Ġl",
        "ea"
      ],
      [
        "Ġl",
        "ong"
      ],
      [
        "Ġl",
        "ater"
      ],
      [
        "Ġl",
        "ocal"
      ],
      [
        "Ġl",
        "evel"
      ],
      [
        "Ġl",
        "esson"
      ],
      [
        "Ġne",
        "ed"
      ],
      [
        "Ġne",
        "ar"
      ],
      [
        "it",
        "s"
      ],
      [
        "it",
        "ors"
      ],
      [
        "Ġà¤ħ",
        "à¤¦"
      ],
      [
        "Ġà¤ħ",
        "à¤ļ"
      ],
      [
        "Ġà¤ħ",
        "à¤§"
      ],
      [
        "Ġth",
        "ree"
      ],
      [
        "à¤¬",
        "à¤²"
      ],
      [
        "Ġà¤°",
        "à¤µ"
      ],
      [
        "Ġà¤°",
        "à¤¦"
      ],
      [
        "Ġà¤°",
        "à¤ĸ"
      ],
      [
        "à¤ĩ",
        "à¤²"
      ],
      [
        "à¤ĩ",
        "à¤¯"
      ],
      [
        "à¤ĩ",
        "à¤¬"
      ],
      [
        "à¤ĩ",
        "à¤«"
      ],
      [
        "ec",
        "ts"
      ],
      [
        "Ġp",
        "ain"
      ],
      [
        "Ġp",
        "re"
      ],
      [
        "Ġp",
        "ric"
      ],
      [
        "Ġp",
        "ark"
      ],
      [
        "Ġp",
        "ol"
      ],
      [
        "Ġp",
        "hone"
      ],
      [
        "Ġp",
        "assw"
      ],
      [
        "Ġp",
        "ath"
      ],
      [
        "à¤Ī",
        "à¤µ"
      ],
      [
        "ro",
        "w"
      ],
      [
        "ro",
        "ve"
      ],
      [
        "ro",
        "duc"
      ],
      [
        "ro",
        "ved"
      ],
      [
        "il",
        "t"
      ],
      [
        "il",
        "y"
      ],
      [
        "Ġà¤¤",
        "à¤Ł"
      ],
      [
        "Ġà¤¤",
        "à¤°à¤¹"
      ],
      [
        "el",
        "y"
      ],
      [
        "ter",
        "ly"
      ],
      [
        "Ġin",
        "cre"
      ],
      [
        "à¥Ĥ",
        "à¤ģ"
      ],
      [
        "Ġà¤ľ",
        "à¤®"
      ],
      [
        "Ġà¤ľ",
        "à¤¨à¤µà¤°"
      ],
      [
        "Ġto",
        "o"
      ],
      [
        "Ġto",
        "day"
      ],
      [
        "Ġto",
        "mor"
      ],
      [
        "ic",
        "s"
      ],
      [
        "ic",
        "y"
      ],
      [
        "à¤¶",
        "à¤ķ"
      ],
      [
        "à¤¶",
        "à¤¯"
      ],
      [
        "à¤ļ",
        "à¤¤"
      ],
      [
        "Ġà¤Ĺ",
        "à¤°"
      ],
      [
        "à¤¡",
        "à¤²"
      ],
      [
        "Ġan",
        "cient"
      ],
      [
        "Ġres",
        "tor"
      ],
      [
        "Ġres",
        "ign"
      ],
      [
        "Ġres",
        "um"
      ],
      [
        "Ġres",
        "che"
      ],
      [
        "Ġres",
        "taur"
      ],
      [
        "Ġres",
        "ervoir"
      ],
      [
        "Ġà¤µ",
        "à¤¸"
      ],
      [
        "Ġà¤µ",
        "à¤¯à¤¸"
      ],
      [
        "Ġfor",
        "got"
      ],
      [
        "ear",
        "cher"
      ],
      [
        "lo",
        "ad"
      ],
      [
        "à¤·",
        "à¤ķ"
      ],
      [
        "à¤·",
        "à¤£"
      ],
      [
        "Ġà¤ĸ",
        "à¤¤"
      ],
      [
        "Ġà¤Ń",
        "à¤°"
      ],
      [
        "ent",
        "y"
      ],
      [
        "Ġbe",
        "ac"
      ],
      [
        "ur",
        "u"
      ],
      [
        "Ġhe",
        "r"
      ],
      [
        "Ġhe",
        "alth"
      ],
      [
        "Ġhe",
        "atwave"
      ],
      [
        "Ġco",
        "ver"
      ],
      [
        "Ġco",
        "de"
      ],
      [
        "Ġco",
        "mmit"
      ],
      [
        "Ġco",
        "oked"
      ],
      [
        "Ġex",
        "hi"
      ],
      [
        "Ġex",
        "am"
      ],
      [
        "Ġex",
        "amp"
      ],
      [
        "Ġex",
        "ercise"
      ],
      [
        "ect",
        "ed"
      ],
      [
        "ect",
        "ly"
      ],
      [
        "oc",
        "k"
      ],
      [
        "Ġg",
        "ot"
      ],
      [
        "Ġg",
        "over"
      ],
      [
        "Ġg",
        "rand"
      ],
      [
        "Ġg",
        "uit"
      ],
      [
        "Ġg",
        "one"
      ],
      [
        "Ġg",
        "arden"
      ],
      [
        "à¤ĸ",
        "à¤°"
      ],
      [
        "à¤ĸ",
        "à¤¤"
      ],
      [
        "Ġà¤Ĩ",
        "à¤ľ"
      ],
      [
        "Ġà¤Ĩ",
        "à¤ł"
      ],
      [
        "Ġà¤Ĩ",
        "à¤®à¤¤"
      ],
      [
        "Ġà¤Ĩ",
        "à¤ªà¤ķ"
      ],
      [
        "Ġà¤ĩ",
        "à¤¤"
      ],
      [
        "her",
        "n"
      ],
      [
        "Ġat",
        "trac"
      ],
      [
        "Ġst",
        "ayed"
      ],
      [
        "Ġst",
        "ation"
      ],
      [
        "Ġst",
        "udy"
      ],
      [
        "Ġst",
        "ock"
      ],
      [
        "oun",
        "t"
      ],
      [
        "Ġweek",
        "end"
      ],
      [
        "ri",
        "ed"
      ],
      [
        "à¤¹à¤°",
        "à¤£"
      ],
      [
        "Ġse",
        "ven"
      ],
      [
        "Ġse",
        "mester"
      ],
      [
        "Ġse",
        "asonal"
      ],
      [
        "end",
        "s"
      ],
      [
        "Ġre",
        "port"
      ],
      [
        "Ġre",
        "pair"
      ],
      [
        "Ġre",
        "view"
      ],
      [
        "pp",
        "ed"
      ],
      [
        "à¤ł",
        "à¤ķ"
      ],
      [
        "Ġad",
        "ults"
      ],
      [
        "Ġad",
        "vis"
      ],
      [
        "Ġad",
        "ded"
      ],
      [
        "Ġad",
        "mis"
      ],
      [
        "Ġal",
        "l"
      ],
      [
        "Ġal",
        "mos"
      ],
      [
        "Ġsp",
        "ring"
      ],
      [
        "Ġch",
        "amp"
      ],
      [
        "Ġch",
        "ange"
      ],
      [
        "Ġcit",
        "ies"
      ],
      [
        "Ġbu",
        "g"
      ],
      [
        "Ġbu",
        "ild"
      ],
      [
        "Ġbu",
        "dget"
      ],
      [
        "Ġbu",
        "ilt"
      ],
      [
        "Ġopen",
        "ed"
      ],
      [
        "ign",
        "men"
      ],
      [
        "Ġpl",
        "anted"
      ],
      [
        "ild",
        "ren"
      ],
      [
        "Ġannounc",
        "e"
      ],
      [
        "Ġclos",
        "e"
      ],
      [
        "Ġclos",
        "ed"
      ],
      [
        "Ġclos",
        "es"
      ],
      [
        "Ġclos",
        "ely"
      ],
      [
        "hi",
        "p"
      ],
      [
        "hon",
        "y"
      ],
      [
        "iver",
        "sit"
      ],
      [
        "um",
        "ent"
      ],
      [
        "Ġve",
        "hic"
      ],
      [
        "à¤§",
        "à¤ķà¤°"
      ],
      [
        "Ġtw",
        "enty"
      ],
      [
        "Ġtea",
        "m"
      ],
      [
        "Ġtea",
        "cher"
      ],
      [
        "Ġapp",
        "roved"
      ],
      [
        "Ġà¤¸à¤®",
        "à¤Ĺ"
      ],
      [
        "Ġà¤¸à¤®",
        "à¤Ŀ"
      ],
      [
        "Ġà¤¸à¤¬",
        "à¤¸"
      ],
      [
        "Ġà¤¬à¤¹",
        "à¤¨"
      ],
      [
        "Ġwor",
        "k"
      ],
      [
        "Ġwor",
        "ks"
      ],
      [
        "Ġwor",
        "ried"
      ],
      [
        "Ġfl",
        "ight"
      ],
      [
        "Ġmon",
        "soon"
      ],
      [
        "Ġmark",
        "ets"
      ],
      [
        "Ġdis",
        "rup"
      ],
      [
        "Ġelect",
        "ion"
      ],
      [
        "Ġelect",
        "ric"
      ],
      [
        "Ġelect",
        "ron"
      ],
      [
        "Ġhis",
        "tory"
      ],
      [
        "à¤ĩà¤¨",
        "à¤®"
      ],
      [
        "Ġint",
        "roduc"
      ],
      [
        "Ġexp",
        "and"
      ],
      [
        "Ġexp",
        "lain"
      ],
      [
        "Ġexp",
        "ected"
      ],
      [
        "Ġspec",
        "ies"
      ],
      [
        "Ġplay",
        "s"
      ],
      [
        "Ġplay",
        "ing"
      ],
      [
        "In",
        "ves"
      ],
      [
        "br",
        "ary"
      ],
      [
        "che",
        "st"
      ],
      [
        "ho",
        "od"
      ],
      [
        "om",
        "mend"
      ],
      [
        "over",
        "ed"
      ],
      [
        "uar",
        "y"
      ],
      [
        "Ġun",
        "its"
      ],
      [
        "Ġun",
        "iversit"
      ],
      [
        "Ġà¤ī",
        "à¤¦"
      ],
      [
        "Ġà¤ī",
        "à¤¡"
      ],
      [
        "Ġtr",
        "ain"
      ],
      [
        "Ġtr",
        "anslated"
      ],
      [
        "à¤¯à¤¨",
        "à¤¶"
      ],
      [
        "Ġser",
        "ver"
      ],
      [
        "Ġser",
        "ves"
      ],
      [
        "Ġstor",
        "e"
      ],
      [
        "Ġstor",
        "ies"
      ],
      [
        "Ġsubmit",
        "ted"
      ],
      [
        "à¤¸à¤°",
        "à¤ķ"
      ],
      [
        "Ġwon",
        "der"
      ],
      [
        "Ġno",
        "vel"
      ],
      [
        "Ġno",
        "ise"
      ],
      [
        "Ġover",
        "all"
      ],
      [
        "ant",
        "ly"
      ],
      [
        "Ġdoc",
        "tor"
      ],
      [
        "Ġdoc",
        "ument"
      ],
      [
        "Ġdrin",
        "k"
      ],
      [
        "Ġdrin",
        "ks"
      ],
      [
        "Ġrain",
        "ed"
      ],
      [
        "Ġeff",
        "ect"
      ],
      [
        "Ġeff",
        "ects"
      ],
      [
        "Ġli",
        "fe"
      ],
      [
        "Ġli",
        "brary"
      ],
      [
        "Ġlear",
        "n"
      ],
      [
        "Ġlear",
        "ning"
      ],
      [
        "Ġpro",
        "duc"
      ],
      [
        "Ġpro",
        "ject"
      ],
      [
        "Ġoff",
        "ering"
      ],
      [
        "Ġà¤ľà¤²",
        "à¤µ"
      ],
      [
        "ions",
        "hip"
      ],
      [
        "Ġheav",
        "y"
      ],
      [
        "Ġheav",
        "ily"
      ],
      [
        "Ġhelp",
        "s"
      ],
      [
        "Ġchild",
        "ren"
      ],
      [
        "Ġchild",
        "hood"
      ],
      [
        "Ġdisc",
        "ount"
      ],
      [
        "Ġdisc",
        "overed"
      ],
      [
        "Ġbank",
        "ing"
      ],
      [
        "Ġdown",
        "load"
      ],
      [
        "Ch",
        "ildren"
      ],
      [
        "Di",
        "wal"
      ],
      [
        "Doc",
        "tors"
      ],
      [
        "En",
        "gineers"
      ],
      [
        "Hea",
        "vy"
      ],
      [
        "Pow",
        "er"
      ],
      [
        "Pric",
        "es"
      ],
      [
        "Re",
        "gul"
      ],
      [
        "Res",
        "earcher"
      ],
      [
        "Rain",
        "fall"
      ],
      [
        "St",
        "uden"
      ],
      [
        "Scient",
        "ists"
      ],
      [
        "Th",
        "is"
      ],
      [
        "Tra",
        "ffic"
      ],
      [
        "Wh",
        "at"
      ],
      [
        "bit",
        "ion"
      ],
      [
        "bac",
        "k"
      ],
      [
        "clo",
        "ck"
      ],
      [
        "cell",
        "ed"
      ],
      [
        "di",
        "a"
      ],
      [
        "dl",
        "ine"
      ],
      [
        "dul",
        "ed"
      ],
      [
        "ebr",
        "ated"
      ],
      [
        "gal",
        "uru"
      ],
      [
        "hn",
        "olo"
      ],
      [
        "iet",
        "ies"
      ],
      [
        "ific",
        "antly"
      ],
      [
        "mot",
        "her"
      ],
      [
        "pit",
        "al"
      ],
      [
        "ther",
        "s"
      ],
      [
        "uall",
        "y"
      ],
      [
        "Ġor",
        "chest"
      ],
      [
        "Ġen",
        "gineers"
      ],
      [
        "Ġus",
        "ually"
      ],
      [
        "ĠIn",
        "dia"
      ],
      [
        "Ġvis",
        "itors"
      ],
      [
        "ĠBen",
        "galuru"
      ],
      [
        "ĠDel",
        "hi"
      ],
      [
        "ĠFri",
        "day"
      ],
      [
        "ĠJan",
        "uary"
      ],
      [
        "ĠPat",
        "na"
      ],
      [
        "ĠSun",
        "day"
      ],
      [
        "Ġimp",
        "rove"
      ],
      [
        "Ġquar",
        "terly"
      ],
      [
        "Ġvar",
        "ieties"
      ],
      [
        "à¤°à¤¦",
        "à¤°"
      ],
      [
        "Ġtec",
        "hnolo"
      ],
      [
        "Ġtre",
        "es"
      ],
      [
        "Ġtur",
        "n"
      ],
      [
        "Ġtest",
        "ing"
      ],
      [
        "Ġtell",
        "s"
      ],
      [
        "Ġtim",
        "e"
      ],
      [
        "Ġtak",
        "e"
      ],
      [
        "Ġaver",
        "age"
      ],
      [
        "Ġass",
        "ignmen"
      ],
      [
        "Ġart",
        "ist"
      ],
      [
        "Ġsing",
        "er"
      ],
      [
        "Ġsup",
        "ply"
      ],
      [
        "Ġsign",
        "ificantly"
      ],
      [
        "Ġscient",
        "ist"
      ],
      [
        "Ġsho",
        "ps"
      ],
      [
        "Ġshar",
        "e"
      ],
      [
        "Ġsmart",
        "phone"
      ],
      [
        "Ġsnow",
        "fall"
      ],
      [
        "Ġswee",
        "ts"
      ],
      [
        "Ġsymp",
        "hony"
      ],
      [
        "Ġà¤ªà¤Ł",
        "à¤¨"
      ],
      [
        "Ġà¤¬à¤ļ",
        "à¤ªà¤¨"
      ],
      [
        "Ġwal",
        "k"
      ],
      [
        "Ġwatch",
        "ing"
      ],
      [
        "Ġweat",
        "her"
      ],
      [
        "Ġcan",
        "celled"
      ],
      [
        "Ġcou",
        "ld"
      ],
      [
        "Ġcel",
        "ebrated"
      ],
      [
        "Ġcup",
        "s"
      ],
      [
        "Ġcounc",
        "il"
      ],
      [
        "Ġcle",
        "aned"
      ],
      [
        "Ġcric",
        "ket"
      ],
      [
        "Ġcross",
        "ed"
      ],
      [
        "Ġcam",
        "era"
      ],
      [
        "Ġclim",
        "ate"
      ],
      [
        "Ġcycl",
        "ing"
      ],
      [
        "à¤¼à¥Ģà¤Ĥ",
        "à¥¤"
      ],
      [
        "Ġfas",
        "ter"
      ],
      [
        "Ġfir",
        "st"
      ],
      [
        "Ġflo",
        "wers"
      ],
      [
        "Ġfun",
        "ding"
      ],
      [
        "Ġfri",
        "ends"
      ],
      [
        "Ġfac",
        "tory"
      ],
      [
        "Ġfeed",
        "back"
      ],
      [
        "Ġfoot",
        "ball"
      ],
      [
        "Ġnort",
        "hern"
      ],
      [
        "Ġbro",
        "thers"
      ],
      [
        "Ġbel",
        "ow"
      ],
      [
        "Ġmee",
        "ting"
      ],
      [
        "Ġmet",
        "ro"
      ],
      [
        "Ġmur",
        "al"
      ],
      [
        "Ġmill",
        "ion"
      ],
      [
        "Ġmus",
        "t"
      ],
      [
        "Ġmuse",
        "um"
      ],
      [
        "Ġmobil",
        "e"
      ],
      [
        "Ġminut",
        "es"
      ],
      [
        "Ġout",
        "age"
      ],
      [
        "Ġouts",
        "ide"
      ],
      [
        "Ġdat",
        "a"
      ],
      [
        "Ġdec",
        "lared"
      ],
      [
        "Ġdro",
        "pped"
      ],
      [
        "Ġdir",
        "ectly"
      ],
      [
        "Ġdur",
        "ing"
      ],
      [
        "Ġdea",
        "dline"
      ],
      [
        "Ġdos",
        "a"
      ],
      [
        "Ġrec",
        "ommend"
      ],
      [
        "Ġric",
        "e"
      ],
      [
        "Ġrul",
        "es"
      ],
      [
        "Ġrais",
        "ed"
      ],
      [
        "Ġemp",
        "ty"
      ],
      [
        "Ġhir",
        "ing"
      ],
      [
        "Ġhos",
        "pital"
      ],
      [
        "Ġlea",
        "ve"
      ],
      [
        "Ġlong",
        "er"
      ],
      [
        "Ġlevel",
        "s"
      ],
      [
        "Ġpain",
        "ted"
      ],
      [
        "Ġpre",
        "pared"
      ],
      [
        "Ġpric",
        "e"
      ],
      [
        "Ġpol",
        "icy"
      ],
      [
        "Ġpassw",
        "ord"
      ],
      [
        "Ġincre",
        "ased"
      ],
      [
        "à¥Ĥà¤ģ",
        "à¥¤"
      ],
      [
        "Ġtomor",
        "row"
      ],
      [
        "Ġrestor",
        "ed"
      ],
      [
        "Ġresign",
        "ation"
      ],
      [
        "Ġresum",
        "e"
      ],
      [
        "Ġresche",
        "duled"
      ],
      [
        "Ġrestaur",
        "ant"
      ],
      [
        "Ġbeac",
        "h"
      ],
      [
        "Ġcommit",
        "tee"
      ],
      [
        "Ġexhi",
        "bition"
      ],
      [
        "Ġexamp",
        "les"
      ],
      [
        "Ġgover",
        "nment"
      ],
      [
        "Ġgrand",
        "mother"
      ],
      [
        "Ġguit",
        "ar"
      ],
      [
        "Ġattrac",
        "ted"
      ],
      [
        "Ġstudy",
        "ing"
      ],
      [
        "Ġrepair",
        "s"
      ],
      [
        "Ġadvis",
        "ed"
      ],
      [
        "Ġadmis",
        "sions"
      ],
      [
        "Ġalmos",
        "t"
      ],
      [
        "Ġchamp",
        "ionship"
      ],
      [
        "Ġbuild",
        "ing"
      ],
      [
        "Ġvehic",
        "les"
      ],
      [
        "Ġdisrup",
        "ted"
      ],
      [
        "Ġelectron",
        "ics"
      ],
      [
        "Ġintroduc",
        "ed"
      ],
      [
        "Ġexplain",
        "ed"
      ],
      [
        "Inves",
        "tors"
      ],
      [
        "Ġuniversit",
        "y"
      ],
      [
        "Ġwonder",
        "ful"
      ],
      [
        "Ġproduc",
        "es"
      ],
      [
        "Ġdownload",
        "s"
      ],
      [
        "Diwal",
        "i"
      ],
      [
        "Regul",
        "ar"
      ],
      [
        "Researcher",
        "s"
      ],
      [
        "Studen",
        "ts"
      ],
      [
        "Ġorchest",
        "ra"
      ],
      [
        "Ġtechnolo",
        "gy"
      ],
      [
        "Ġassignmen",
        "ts"
      ]
    ]
  }
}