{
  "version": "1.0",
  "truncation": null,
  "padding": null,
  "added_tokens": [
    {
      "id": 0,
      "content": "<unk>",
      "single_word": false,
      "lstrip": false,
      "rstrip": false,
      "normalized": false,
      "special": true
    },
    {
      "id": 1,
      "content": "<pad>",
      "single_word": false,
      "lstrip": false,
      "rstrip": false,
      "normalized": false,
      "special": true
    }
  ],
  "normalizer": null,
  "pre_tokenizer": {
    "type": "ByteLevel",
    "add_prefix_space": false,
    "trim_offsets": true,
    "use_regex": true
  },
  "post_processor": null,
  "decoder": {
    "type": "ByteLevel",
    "add_prefix_space": true,
    "trim_offsets": true,
    "use_regex": true
  },
  "model": {
    "type": "BPE",
    "dropout": null,
    "unk_token": "<unk>",
    "continuing_subword_prefix": null,
    "end_of_word_suffix": null,
    "fuse_unk": false,
    "byte_fallback": false,
    "ignore_merges": false,
    "vocab": {
      "<unk>": 0,
      "<pad>": 1,
      "!": 2,
      "\"": 3,
      "#": 4,
      "$": 5,
      "%": 6,
      "&": 7,
      "'": 8,
      "(": 9,
      ")": 10,
      "*": 11,
      "+": 12,
      ",": 13,
      "-": 14,
      ".": 15,
      "/": 16,
      "0": 17,
      "1": 18,
      "2": 19,
      "3": 20,
      "4": 21,
      "5": 22,
      "6": 23,
      "7": 24,
      "8": 25,
      "9": 26,
      ":": 27,
      ";": 28,
      "<": 29,
      "=": 30,
      ">": 31,
      "?": 32,
      "@": 33,
      "A": 34,
      "B": 35,
      "C": 36,
      "D": 37,
      "E": 38,
      "F": 39,
      "G": 40,
      "H": 41,
      "I": 42,
      "J": 43,
      "K": 44,
      "L": 45,
      "M": 46,
      "N": 47,
      "O": 48,
      "P": 49,
      "Q": 50,
      "R": 51,
      "S": 52,
      "T": 53,
      "U": 54,
      "V": 55,
      "W": 56,
      "X": 57,
      "Y": 58,
      "Z": 59,
      "[": 60,
      "\\": 61,
      "]": 62,
      "^": 63,
      "_": 64,
      "`": 65,
      "a": 66,
      "b": 67,
      "c": 68,
      "d": 69,
      "e": 70,
      "f": 71,
      "g": 72,
      "h": 73,
      "i": 74,
      "j": 75,
      "k": 76,
      "l": 77,
      "m": 78,
      "n": 79,
      "o": 80,
      "p": 81,
      "q": 82,
      "r": 83,
      "s": 84,
      "t": 85,
      "u": 86,
      "v": 87,
      "w": 88,
      "x": 89,
      "y": 90,
      "z": 91,
      "{": 92,
      "|": 93,
      "}": 94,
      "~": 95,
      "¡": 96,
      "¢": 97,
      "£": 98,
      "¤": 99,
      "¥": 100,
      "¦": 101,
      "§": 102,
      "¨": 103,
      "©": 104,
      "ª": 105,
      "«": 106,
      "¬": 107,
      "®": 108,
      "¯": 109,
      "°": 110,
      "±": 111,
      "²": 112,
      "³": 113,
      "´": 114,
      "µ": 115,
      "¶": 116,
      "·": 117,
      "¸": 118,
      "¹": 119,
      "º": 120,
      "»": 121,
      "¼": 122,
      "½": 123,
      "¾": 124,
      "¿": 125,
      "À": 126,
      "Á": 127,
      "Â": 128,
      "Ã": 129,
      "Ä": 130,
      "Å": 131,
      "Æ": 132,
      "Ç": 133,
      "È": 134,
      "É": 135,
      "Ê": 136,
      "Ë": 137,
      "Ì": 138,
      "Í": 139,
      "Î": 140,
      "Ï": 141,
      "Ð": 142,
      "Ñ": 143,
      "Ò": 144,
      "Ó": 145,
      "Ô": 146,
      "Õ": 147,
      "Ö": 148,
      "×": 149,
      "Ø": 150,
      "Ù": 151,
      "Ú": 152,
      "Û": 153,
      "Ü": 154,
      "Ý": 155,
      "Þ": 156,
      "ß": 157,
      "à": 158,
      "á": 159,
      "â": 160,
      "ã": 161,
      "ä": 162,
      "å": 163,
      "æ": 164,
      "ç": 165,
      "è": 166,
      "é": 167,
      "ê": 168,
      "ë": 169,
      "ì": 170,
      "í": 171,
      "î": 172,
      "ï": 173,
      "ð": 174,
      "ñ": 175,
      "ò": 176,
      "ó": 177,
      "ô": 178,
      "õ": 179,
      "ö": 180,
      "÷": 181,
      "ø": 182,
      "ù": 183,
      "ú": 184,
      "û": 185,
      "ü": 186,
      "ý": 187,
      "þ": 188,
      "ÿ": 189,
      "Ā": 190,
      "ā": 191,
      "Ă": 192,
      "ă": 193,
      "Ą": 194,
      "ą": 195,
      "Ć": 196,
      "ć": 197,
      "Ĉ": 198,
      "ĉ": 199,
      "Ċ": 200,
      "ċ": 201,
      "Č": 202,
      "č": 203,
      "Ď": 204,
      "ď": 205,
      "Đ": 206,
      "đ": 207,
      "Ē": 208,
      "ē": 209,
      "Ĕ": 210,
      "ĕ": 211,
      "Ė": 212,
      "ė": 213,
      "Ę": 214,
      "ę": 215,
      "Ě": 216,
      "ě": 217,
      "Ĝ": 218,
      "ĝ": 219,
      "Ğ": 220,
      "ğ": 221,
      "Ġ": 222,
      "ġ": 223,
      "Ģ": 224,
      "ģ": 225,
      "Ĥ": 226,
      "ĥ": 227,
      "Ħ": 228,
      "ħ": 229,
      "Ĩ": 230,
      "ĩ": 231,
      "Ī": 232,
      "ī": 233,
      "Ĭ": 234,
      "ĭ": 235,
      "Į": 236,
      "į": 237,
      "İ": 238,
      "ı": 239,
      "Ĳ": 240,
      "ĳ": 241,
      "Ĵ": 242,
      "ĵ": 243,
      "Ķ": 244,
      "ķ": 245,
      "ĸ": 246,
      "Ĺ": 247,
      "ĺ": 248,
      "Ļ": 249,
      "ļ": 250,
      "Ľ": 251,
      "ľ": 252,
      "Ŀ": 253,
      "ŀ": 254,
      "Ł": 255,
      "ł": 256,
      "Ń": 257,
      "à¤": 258,
      "he": 259,
      "Ġt": 260,
      "à¥": 261,
      "Ġà¤": 262,
      "Ġa": 263,
      "er": 264,
      "in": 265,
      "Ġthe": 266,
      "ed": 267,
      "es": 268,
      "is": 269,
      "Ġs": 270,
      "or": 271,
      "The": 272,
      "on": 273,
      "Ġw": 274,
      "Ġc": 275,
      "en": 276,
      "à¥ĩ": 277,
      "Ġf": 278,
      "ar": 279,
      "Ġn": 280,
      "Ġb": 281,
      "Ġm": 282,
      "Ġo": 283,
      "an": 284,
      "à¤¾": 285,
      "Ġd": 286,
      "Ġr": 287,
      "al": 288,
      "Ġe": 289,
      "as": 290,
      "ou": 291,
      "Ġh": 292,
      "at": 293,
      "Ġl": 294,
      "ing": 295,
      "Ġne": 296,
      "it": 297,
      "Ġth": 298,
      "à¤°": 299,
      "ay": 300,
      "ec": 301,
      "ig": 302,
      "ts": 303,
      "ver": 304,
      "Ġp": 305,
      "Ġof": 306,
      "ro": 307,
      "à¥Ģ": 308,
      "il": 309,
      "Ġnew": 310,
      "el": 311,
      "ter": 312,
      "Ġy": 313,
      "Ġin": 314,
      "Ġto": 315,
      "Ġthis": 316,
      "ee": 317,
      "ic": 318,
      "igh": 319,
      "à¥į": 320,
      "et": 321,
      "Ġan": 322,
      "Ġà¤ķ": 323,
      "ve": 324,
      "Ġres": 325,
      "à¤¨": 326,
      "à¤Ĥ": 327,
      "à¥ĭ": 328,
      "ir": 329,
      "ion": 330,
      "ul": 331,
      "à¥¤": 332,
      "Ġfor": 333,
      "à¤²": 334,
      "à¤¹": 335,
      "à¤ķ": 336,
      "Ġà¤¹": 337,
      "ain": 338,
      "ear": 339,
      "lo": 340,
      "mp": 341,
      "re": 342,
      "tor": 343,
      "Ġà¤¸": 344,
      "ent": 345,
      "Ġbe": 346,
      "à¤¤": 347,
      "à¤¿": 348,
      "day": 349,
      "ot": 350,
      "ur": 351,
      "Ġhe": 352,
      "Ġis": 353,
      "Ġon": 354,
      "à¤®": 355,
      "ers": 356,
      "Ġco": 357,
      "all": 358,
      "Ġex": 359,
      "ect": 360,
      "Ġà¤ª": 361,
      "ea": 362,
      "oc": 363,
      "un": 364,
      "up": 365,
      "Ġg": 366,
      "à¤Ł": 367,
      "her": 368,
      "Ġat": 369,
      "Ġst": 370,
      "Ġwas": 371,
      "Ġwee": 372,
      "oun": 373,
      "our": 374,
      "Ġhas": 375,
      "ill": 376,
      "ight": 377,
      "Ġand": 378,
      "Ġweek": 379,
      "à¤ľ": 380,
      "Ġà¤®": 381,
      "à¤¯": 382,
      "à¥Ī": 383,
      "Ġà¤¦": 384,
      "Ġà¤¬": 385,
      "for": 386,
      "ge": 387,
      "ow": 388,
      "ri": 389,
      "ss": 390,
      "ted": 391,
      "us": 392,
      "à¤¸": 393,
      "Ġare": 394,
      "Ġse": 395,
      "Ġwill": 396,
      "end": 397,
      "and": 398,
      "Ġre": 399,
      "Ġyear": 400,
      "ults": 401,
      "ounc": 402,
      "à¤ª": 403,
      "à¤¼": 404,
      "à¤Ĺ": 405,
      "à¥ĩà¤Ĥ": 406,
      "ac": 407,
      "ave": 408,
      "eers": 409,
      "fic": 410,
      "ies": 411,
      "le": 412,
      "ly": 413,
      "les": 414,
      "nounc": 415,
      "pp": 416,
      "pen": 417,
      "ric": 418,
      "ven": 419,
      "xt": 420,
      "Ġad": 421,
      "Ġal": 422,
      "est": 423,
      "Ġsp": 424,
      "ort": 425,
      "Ġch": 426,
      "Ġcit": 427,
      "Ġclo": 428,
      "ark": 429,
      "Ġbu": 430,
      "Ġmor": 431,
      "Ġopen": 432,
      "any": 433,
      "Ġever": 434,
      "Ġnext": 435,
      "ign": 436,
      "Ġpl": 437,
      "ross": 438,
      "ild": 439,
      "ell": 440,
      "ights": 441,
      "Ġannounc": 442,
      "Ġresults": 443,
      "Ġclos": 444,
      "Ġevery": 445,
      "à¤µ": 446,
      "à¥ģ": 447,
      "He": 448,
      "Ple": 449,
      "She": 450,
      "bou": 451,
      "ch": 452,
      "ci": 453,
      "cross": 454,
      "get": 455,
      "hi": 456,
      "hon": 457,
      "im": 458,
      "iver": 459,
      "lect": 460,
      "mit": 461,
      "ning": 462,
      "ol": 463,
      "os": 464,
      "port": 465,
      "sand": 466,
      "th": 467,
      "um": 468,
      "Ġit": 469,
      "Ġve": 470,
      "à¤¦": 471,
      "à¤¬": 472,
      "Ġtw": 473,
      "Ġtea": 474,
      "Ġà¤ħ": 475,
      "Ġapp": 476,
      "Ġabou": 477,
      "Ġacross": 478,
      "ester": 479,
      "ong": 480,
      "Ġwor": 481,
      "Ġwit": 482,
      "Ġfl": 483,
      "art": 484,
      "Ġnight": 485,
      "Ġme": 486,
      "Ġmon": 487,
      "Ġmark": 488,
      "Ġdis": 489,
      "Ġeven": 490,
      "Ġelect": 491,
      "ase": 492,
      "ast": 493,
      "ousand": 494,
      "Ġhis": 495,
      "Ġhour": 496,
      "Ġhave": 497,
      "ate": 498,
      "ater": 499,
      "atch": 500,
      "Ġlast": 501,
      "Ġthousand": 502,
      "ayed": 503,
      "Ġyou": 504,
      "Ġyour": 505,
      "Ġint": 506,
      "etter": 507,
      "mpany": 508,
      "Ġbefor": 509,
      "Ġcompany": 510,
      "Ġexp": 511,
      "use": 512,
      "Ġspec": 513,
      "Ġcity": 514,
      "Ġplay": 515,
      "Ġannounced": 516,
      "Please": 517,
      "cient": 518,
      "Ġabout": 519,
      "Ġwith": 520,
      "Ġevening": 521,
      "Ġbefore": 522,
      "Ġà¤¤": 523,
      "Ġà¤°": 524,
      "à¥Īà¥¤": 525,
      "à¤ĩ": 526,
      "Ġà¤¨": 527,
      "Ġà¤²": 528,
      "Ġà¤Ĺ": 529,
      "Ġà¤ľ": 530,
      "à¤ªà¤¨": 531,
      "à¤¼à¥į": 532,
      "Can": 533,
      "Far": 534,
      "In": 535,
      "My": 536,
      "Mon": 537,
      "Our": 538,
      "Vol": 539,
      "ab": 540,
      "ad": 541,
      "ag": 542,
      "am": 543,
      "av": 544,
      "amp": 545,
      "age": 546,
      "ause": 547,
      "br": 548,
      "bmit": 549,
      "che": 550,
      "cer": 551,
      "cher": 552,
      "de": 553,
      "du": 554,
      "den": 555,
      "dge": 556,
      "ff": 557,
      "fter": 558,
      "fall": 559,
      "gu": 560,
      "gin": 561,
      "gion": 562,
      "gain": 563,
      "ho": 564,
      "iv": 565,
      "ix": 566,
      "ial": 567,
      "ks": 568,
      "ld": 569,
      "lp": 570,
      "lee": 571,
      "med": 572,
      "mers": 573,
      "om": 574,
      "over": 575,
      "ra": 576,
      "rin": 577,
      "ren": 578,
      "st": 579,
      "teers": 580,
      "ut": 581,
      "uar": 582,
      "ubmit": 583,
      "ves": 584,
      "vis": 585,
      "vel": 586,
      "way": 587,
      "Ġun": 588,
      "ĠMon": 589,
      "à¤¡": 590,
      "à¤Ī": 591,
      "à¤ı": 592,
      "Ġtr": 593,
      "à¥Ĥ": 594,
      "Ġair": 595,
      "Ġafter": 596,
      "Ġagain": 597,
      "erfor": 598,
      "Ġtheir": 599,
      "ise": 600,
      "ish": 601,
      "ist": 602,
      "Ġser": 603,
      "Ġstor": 604,
      "Ġsend": 605,
      "Ġslee": 606,
      "Ġsubmit": 607,
      "oncer": 608,
      "Ġwon": 609,
      "Ġconcer": 610,
      "Ġfro": 611,
      "Ġfest": 612,
      "ared": 613,
      "Ġno": 614,
      "Ġnot": 615,
      "Ġban": 616,
      "Ġbat": 617,
      "Ġbec": 618,
      "Ġbri": 619,
      "Ġmatch": 620,
      "Ġover": 621,
      "ant": 622,
      "angu": 623,
      "Ġdel": 624,
      "Ġdoc": 625,
      "Ġdow": 626,
      "Ġdrin": 627,
      "Ġrain": 628,
      "Ġriver": 629,
      "Ġeight": 630,
      "Ġeff": 631,
      "Ġhigh": 632,
      "ated": 633,
      "ation": 634,
      "Ġli": 635,
      "Ġlear": 636,
      "Ġlights": 637,
      "Ġlate": 638,
      "Ġletter": 639,
      "Ġlangu": 640,
      "Ġthan": 641,
      "veral": 642,
      "Ġpro": 643,
      "Ġperfor": 644,
      "Ġoff": 645,
      "Ġoffic": 646,
      "tery": 647,
      "Ġyester": 648,
      "ions": 649,
      "tors": 650,
      "tory": 651,
      "Ġbeen": 652,
      "Ġheav": 653,
      "Ġhelp": 654,
      "Ġone": 655,
      "ocal": 656,
      "unteers": 657,
      "Ġstart": 658,
      "Ġseveral": 659,
      "Ġregion": 660,
      "Ġalong": 661,
      "Ġchild": 662,
      "Ġmore": 663,
      "Ġmorning": 664,
      "getab": 665,
      "hone": 666,
      "Ġits": 667,
      "Ġvegetab": 668,
      "Ġtwo": 669,
      "Ġflights": 670,
      "Ġmonth": 671,
      "Ġmarket": 672,
      "Ġdisc": 673,
      "Ġhours": 674,
      "Ġthousands": 675,
      "Ġinto": 676,
      "Ġspecial": 677,
      "Farmers": 678,
      "Volunteers": 679,
      "ages": 680,
      "duc": 681,
      "gineers": 682,
      "ival": 683,
      "ĠMonday": 684,
      "Ġairport": 685,
      "Ġsleep": 686,
      "Ġconcert": 687,
      "Ġfrom": 688,
      "Ġfestival": 689,
      "Ġbank": 690,
      "Ġbattery": 691,
      "Ġbecause": 692,
      "Ġbridge": 693,
      "Ġdelayed": 694,
      "Ġdown": 695,
      "Ġhighway": 696,
      "Ġlanguages": 697,
      "Ġperformed": 698,
      "Ġoffice": 699,
      "Ġyesterday": 700,
      "Ġstartup": 701,
      "Ġvegetables": 702,
      "à¤¾à¥¤": 703,
      "Ġà¤ķà¤°": 704,
      "à¥Īà¤Ĥ": 705,
      "Ġà¤ħà¤ªà¤¨": 706,
      "à¤«": 707,
      "à¤ĸ": 708,
      "à¤ļ": 709,
      "Ġà¤¶": 710,
      "Ġà¤Ń": 711,
      "à¤¹à¤²": 712,
      "Ġà¤ªà¤¹à¤²": 713,
      "Ġà¤¬à¤ľ": 714,
      "à¤µà¤°": 715,
      "'s": 716,
      "Ben": 717,
      "Ch": 718,
      "Di": 719,
      "Del": 720,
      "Doc": 721,
      "En": 722,
      "Fri": 723,
      "Hea": 724,
      "It": 725,
      "Jan": 726,
      "Local": 727,
      "Pat": 728,
      "Pow": 729,
      "Pric": 730,
      "Re": 731,
      "Res": 732,
      "Rain": 733,
      "St": 734,
      "Sun": 735,
      "Scient": 736,
      "Th": 737,
      "Tra": 738,
      "We": 739,
      "Wh": 740,
      "Water": 741,
      "ak": 742,
      "ais": 743,
      "air": 744,
      "aur": 745,
      "bit": 746,
      "bil": 747,
      "ball": 748,
      "bac": 749,
      "ck": 750,
      "cl": 751,
      "clo": 752,
      "cre": 753,
      "cell": 754,
      "cise": 755,
      "di": 756,
      "dl": 757,
      "dy": 758,
      "der": 759,
      "ded": 760,
      "ding": 761,
      "dul": 762,
      "dget": 763,
      "ew": 764,
      "eed": 765,
      "eat": 766,
      "ets": 767,
      "ebr": 768,
      "evel": 769,
      "fe": 770,
      "ful": 771,
      "ffic": 772,
      "gy": 773,
      "gal": 774,
      "gul": 775,
      "got": 776,
      "hn": 777,
      "har": 778,
      "hic": 779,
      "iet": 780,
      "ive": 781,
      "imp": 782,
      "ific": 783,
      "ide": 784,
      "iew": 785,
      "ject": 786,
      "ked": 787,
      "ket": 788,
      "lain": 789,
      "lim": 790,
      "lared": 791,
      "lated": 792,
      "mis": 793,
      "mor": 794,
      "men": 795,
      "ment": 796,
      "mot": 797,
      "mend": 798,
      "mmit": 799,
      "mos": 800,
      "mester": 801,
      "mart": 802,
      "na": 803,
      "ner": 804,
      "now": 805,
      "nment": 806,
      "od": 807,
      "oes": 808,
      "oon": 809,
      "oir": 810,
      "olo": 811,
      "oot": 812,
      "oom": 813,
      "obil": 814,
      "oked": 815,
      "ps": 816,
      "pit": 817,
      "ply": 818,
      "pared": 819,
      "phone": 820,
      "pair": 821,
      "quar": 822,
      "rt": 823,
      "ron": 824,
      "ring": 825,
      "ree": 826,
      "rup": 827,
      "rand": 828,
      "rac": 829,
      "sw": 830,
      "son": 831,
      "sit": 832,
      "sions": 833,
      "slated": 834,
      "soon": 835,
      "ty": 836,
      "ting": 837,
      "tee": 838,
      "ther": 839,
      "taur": 840,
      "trac": 841,
      "ue": 842,
      "uit": 843,
      "uts": 844,
      "uel": 845,
      "uall": 846,
      "uden": 847,
      "udy": 848,
      "vy": 849,
      "ved": 850,
      "var": 851,
      "vent": 852,
      "view": 853,
      "voir": 854,
      "wal": 855,
      "wee": 856,
      "wers": 857,
      "wave": 858,
      "ymp": 859,
      "ycl": 860,
      "Ġor": 861,
      "Ġen": 862,
      "Ġup": 863,
      "Ġus": 864,
      "ĠIn": 865,
      "Ġvis": 866,
      "ĠBen": 867,
      "ĠDel": 868,
      "ĠFri": 869,
      "ĠJan": 870,
      "ĠPat": 871,
      "ĠSun": 872,
      "Ġimp": 873,
      "Ġquar": 874,
      "Ġvar": 875,
      "ıà¤ķ": 876,
      "Ķà¤°": 877,
      "à¤·": 878,
      "à¤ģ": 879,
      "hef": 880,
      "hen": 881,
      "Ġten": 882,
      "Ġtec": 883,
      "Ġtre": 884,
      "Ġtur": 885,
      "Ġtest": 886,
      "Ġtell": 887,
      "Ġtim": 888,
      "Ġtak": 889,
      "à¥ĥ": 890,
      "Ġà¤¡": 891,
      "Ġà¤¥": 892,
      "Ġà¤«": 893,
      "Ġà¤µ": 894,
      "Ġà¤Ĩ": 895,
      "Ġà¤ĸ": 896,
      "Ġà¤ĺ": 897,
      "Ġà¤Ł": 898,
      "Ġà¤ıà¤ķ": 899,
      "Ġà¤Ķà¤°": 900,
      "Ġas": 901,
      "Ġaver": 902,
      "Ġass": 903,
      "Ġart": 904,
      "era": 905,
      "ere": 906,
      "ering": 907,
      "ercise": 908,
      "ervoir": 909,
      "ine": 910,
      "inut": 911,
      "inish": 912,
      "inner": 913,
      "esign": 914,
      "esson": 915,
      "ists": 916,
      "ister": 917,
      "Ġsing": 918,
      "Ġsup": 919,
      "Ġsign": 920,
      "Ġsell": 921,
      "Ġscient": 922,
      "Ġsho": 923,
      "Ġsix": 924,
      "Ġshar": 925,
      "Ġsmart": 926,
      "Ġsnow": 927,
      "Ġswee": 928,
      "Ġsymp": 929,
      "Ġsister": 930,
      "ord": 931,
      "ors": 932,
      "They": 933,
      "one": 934,
      "onal": 935,
      "Ġwal": 936,
      "Ġwent": 937,
      "Ġwall": 938,
      "Ġwell": 939,
      "Ġwater": 940,
      "Ġwatch": 941,
      "Ġweat": 942,
      "Ġwhen": 943,
      "Ġwere": 944,
      "Ġcan": 945,
      "Ġcou": 946,
      "Ġcel": 947,
      "Ġcup": 948,
      "Ġcounc": 949,
      "Ġcle": 950,
      "Ġcric": 951,
      "Ġcross": 952,
      "Ġcam": 953,
      "Ġclim": 954,
      "Ġcycl": 955,
      "Ġchef": 956,
      "enu": 957,
      "Ġfas": 958,
      "Ġfir": 959,
      "Ġflo": 960,
      "Ġfun": 961,
      "Ġfri": 962,
      "Ġfac": 963,
      "Ġfix": 964,
      "Ġfish": 965,
      "Ġfeed": 966,
      "Ġfive": 967,
      "Ġfoot": 968,
      "Ġfuel": 969,
      "Ġfinish": 970,
      "ary": 971,
      "arden": 972,
      "Ġnort": 973,
      "Ġby": 974,
      "Ġbro": 975,
      "Ġbel": 976,
      "Ġbest": 977,
      "Ġbetter": 978,
      "Ġbad": 979,
      "Ġmy": 980,
      "Ġmee": 981,
      "Ġmet": 982,
      "Ġmur": 983,
      "Ġmill": 984,
      "Ġmus": 985,
      "Ġmany": 986,
      "Ġmuse": 987,
      "Ġmobil": 988,
      "Ġminut": 989,
      "Ġmenu": 990,
      "Ġold": 991,
      "Ġout": 992,
      "Ġouts": 993,
      "aned": 994,
      "ange": 995,
      "anted": 996,
      "anslated": 997,
      "Ġdal": 998,
      "Ġdat": 999,
      "Ġday": 1000,
      "Ġdec": 1001,
      "Ġdro": 1002,
      "Ġdir": 1003,
      "Ġdur": 1004,
      "Ġdea": 1005,
      "Ġdos": 1006,
      "Ġdoes": 1007,
      "Ġdue": 1008,
      "Ġdinner": 1009,
      "Ġdesign": 1010,
      "Ġrec": 1011,
      "Ġric": 1012,
      "Ġrul": 1013,
      "Ġrais": 1014,
      "Ġroom": 1015,
      "alth": 1016,
      "Ġemp": 1017,
      "Ġevent": 1018,
      "ased": 1019,
      "assw": 1020,
      "asonal": 1021,
      "Ġhir": 1022,
      "Ġhot": 1023,
      "Ġhall": 1024,
      "Ġhim": 1025,
      "Ġhos": 1026,
      "ath": 1027,
      "atwave": 1028,
      "Ġlea": 1029,
      "Ġlong": 1030,
      "Ġlater": 1031,
      "Ġlocal": 1032,
      "Ġlevel": 1033,
      "Ġlesson": 1034,
      "Ġneed": 1035,
      "Ġnear": 1036,
      "its": 1037,
      "itors": 1038,
      "Ġthree": 1039,
      "ects": 1040,
      "Ġpain": 1041,
      "Ġpre": 1042,
      "Ġpric": 1043,
      "Ġpark": 1044,
      "Ġpol": 1045,
      "Ġphone": 1046,
      "Ġpassw": 1047,
      "Ġpath": 1048,
      "row": 1049,
      "rove": 1050,
      "roduc": 1051,
      "roved": 1052,
      "à¥Ģà¥¤": 1053,
      "ilt": 1054,
      "ily": 1055,
      "ely": 1056,
      "terly": 1057,
      "Ġincre": 1058,
      "Ġtoo": 1059,
      "Ġtoday": 1060,
      "Ġtomor": 1061,
      "ics": 1062,
      "icy": 1063,
      "Ġancient": 1064,
      "Ġrestor": 1065,
      "Ġresign": 1066,
      "Ġresum": 1067,
      "Ġresche": 1068,
      "Ġrestaur": 1069,
      "Ġreservoir": 1070,
      "Ġforgot": 1071,
      "à¤ķà¤²": 1072,
      "earcher": 1073,
      "load": 1074,
      "enty": 1075,
      "Ġbeac": 1076,
      "uru": 1077,
      "Ġher": 1078,
      "Ġhealth": 1079,
      "Ġheatwave": 1080,
      "Ġcover": 1081,
      "Ġcode": 1082,
      "Ġcommit": 1083,
      "Ġcooked": 1084,
      "Ġexhi": 1085,
      "Ġexam": 1086,
      "Ġexamp": 1087,
      "Ġexercise": 1088,
      "ected": 1089,
      "ectly": 1090,
      "ock": 1091,
      "Ġgot": 1092,
      "Ġgover": 1093,
      "Ġgrand": 1094,
      "Ġguit": 1095,
      "Ġgone": 1096,
      "Ġgarden": 1097,
      "à¤Łà¤°": 1098,
      "hern": 1099,
      "Ġattrac": 1100,
      "Ġstayed": 1101,
      "Ġstation": 1102,
      "Ġstudy": 1103,
      "Ġstock": 1104,
      "ount": 1105,
      "Ġweekend": 1106,
      "ried": 1107,
      "Ġseven": 1108,
      "Ġsemester": 1109,
      "Ġseasonal": 1110,
      "ends": 1111,
      "Ġreport": 1112,
      "Ġrepair": 1113,
      "Ġreview": 1114,
      "à¤ªà¤¯": 1115,
      "à¤Ĺà¤²": 1116,
      "à¥ĩà¤Ĥà¥¤": 1117,
      "pped": 1118,
      "Ġadults": 1119,
      "Ġadvis": 1120,
      "Ġadded": 1121,
      "Ġadmis": 1122,
      "Ġall": 1123,
      "Ġalmos": 1124,
      "Ġspring": 1125,
      "Ġchamp": 1126,
      "Ġchange": 1127,
      "Ġcities": 1128,
      "Ġbug": 1129,
      "Ġbuild": 1130,
      "Ġbudget": 1131,
      "Ġbuilt": 1132,
      "Ġopened": 1133,
      "ignmen": 1134,
      "Ġplanted": 1135,
      "ildren": 1136,
      "Ġannounce": 1137,
      "Ġclose": 1138,
      "Ġclosed": 1139,
      "Ġcloses": 1140,
      "Ġclosely": 1141,
      "à¤µà¤¹": 1142,
      "hip": 1143,
      "hony": 1144,
      "iversit": 1145,
      "ument": 1146,
      "Ġvehic": 1147,
      "Ġtwenty": 1148,
      "Ġteam": 1149,
      "Ġteacher": 1150,
      "Ġapproved": 1151,
      "Ġwork": 1152,
      "Ġworks": 1153,
      "Ġworried": 1154,
      "Ġflight": 1155,
      "Ġmonsoon": 1156,
      "Ġmarkets": 1157,
      "Ġdisrup": 1158,
      "Ġelection": 1159,
      "Ġelectric": 1160,
      "Ġelectron": 1161,
      "Ġhistory": 1162,
      "Ġintroduc": 1163,
      "Ġexpand": 1164,
      "Ġexplain": 1165,
      "Ġexpected": 1166,
      "Ġspecies": 1167,
      "Ġplays": 1168,
      "Ġplaying": 1169,
      "Ġà¤°à¤¹": 1170,
      "Inves": 1171,
      "brary": 1172,
      "chest": 1173,
      "hood": 1174,
      "ommend": 1175,
      "overed": 1176,
      "uary": 1177,
      "Ġunits": 1178,
      "Ġuniversit": 1179,
      "Ġtrain": 1180,
      "Ġtranslated": 1181,
      "Ġserver": 1182,
      "Ġserves": 1183,
      "Ġstore": 1184,
      "Ġstories": 1185,
      "Ġsubmitted": 1186,
      "Ġwonder": 1187,
      "Ġnovel": 1188,
      "Ġnoise": 1189,
      "Ġoverall": 1190,
      "antly": 1191,
      "Ġdoctor": 1192,
      "Ġdocument": 1193,
      "Ġdrink": 1194,
      "Ġdrinks": 1195,
      "Ġrained": 1196,
      "Ġeffect": 1197,
      "Ġeffects": 1198,
      "Ġlife": 1199,
      "Ġlibrary": 1200,
      "Ġlearn": 1201,
      "Ġlearning": 1202,
      "Ġproduc": 1203,
      "Ġproject": 1204,
      "Ġoffering": 1205,
      "ionship": 1206,
      "Ġheavy": 1207,
      "Ġheavily": 1208,
      "Ġhelps": 1209,
      "Ġchildren": 1210,
      "Ġchildhood": 1211,
      "Ġdiscount": 1212,
      "Ġdiscovered": 1213,
      "Ġbanking": 1214,
      "Ġdownload": 1215,
      "Children": 1216,
      "Diwal": 1217,
      "Doctors": 1218,
      "Engineers": 1219,
      "Heavy": 1220,
      "Power": 1221,
      "Prices": 1222,
      "Regul": 1223,
      "Researcher": 1224,
      "Rainfall": 1225,
      "Studen": 1226,
      "Scientists": 1227,
      "This": 1228,
      "Traffic": 1229,
      "What": 1230,
      "bition": 1231,
      "back": 1232,
      "clock": 1233,
      "celled": 1234,
      "dia": 1235,
      "dline": 1236,
      "duled": 1237,
      "ebrated": 1238,
      "galuru": 1239,
      "hnolo": 1240,
      "ieties": 1241,
      "ificantly": 1242,
      "mother": 1243,
      "pital": 1244,
      "thers": 1245,
      "ually": 1246,
      "Ġorchest": 1247,
      "Ġengineers": 1248,
      "Ġusually": 1249,
      "ĠIndia": 1250,
      "Ġvisitors": 1251,
      "ĠBengaluru": 1252,
      "ĠDelhi": 1253,
      "ĠFriday": 1254,
      "ĠJanuary": 1255,
      "ĠPatna": 1256,
      "ĠSunday": 1257,
      "Ġimprove": 1258,
      "Ġquarterly": 1259,
      "Ġvarieties": 1260,
      "Ġtechnolo": 1261,
      "Ġtrees": 1262,
      "Ġturn": 1263,
      "Ġtesting": 1264,
      "Ġtells": 1265,
      "Ġtime": 1266,
      "Ġtake": 1267,
      "Ġaverage": 1268,
      "Ġassignmen": 1269,
      "Ġartist": 1270,
      "Ġsinger": 1271,
      "Ġsupply": 1272,
      "Ġsignificantly": 1273,
      "Ġscientist": 1274,
      "Ġshops": 1275,
      "Ġshare": 1276,
      "Ġsmartphone": 1277,
      "Ġsnowfall": 1278,
      "Ġsweets": 1279,
      "Ġsymphony": 1280,
      "Ġwalk": 1281,
      "Ġwatching": 1282,
      "Ġweather": 1283,
      "Ġcancelled": 1284,
      "Ġcould": 1285,
      "Ġcelebrated": 1286,
      "Ġcups": 1287,
      "Ġcouncil": 1288,
      "Ġcleaned": 1289,
      "Ġcricket": 1290,
      "Ġcrossed": 1291,
      "Ġcamera": 1292,
      "Ġclimate": 1293,
      "Ġcycling": 1294,
      "Ġfaster": 1295,
      "Ġfirst": 1296,
      "Ġflowers": 1297,
      "Ġfunding": 1298,
      "Ġfriends": 1299,
      "Ġfactory": 1300,
      "Ġfeedback": 1301,
      "Ġfootball": 1302,
      "Ġnorthern": 1303,
      "Ġbrothers": 1304,
      "Ġbelow": 1305,
      "Ġmeeting": 1306,
      "Ġmetro": 1307,
      "Ġmural": 1308,
      "Ġmillion": 1309,
      "Ġmust": 1310,
      "Ġmuseum": 1311,
      "Ġmobile": 1312,
      "Ġminutes": 1313,
      "Ġoutage": 1314,
      "Ġoutside": 1315,
      "Ġdata": 1316,
      "Ġdeclared": 1317,
      "Ġdropped": 1318,
      "Ġdirectly": 1319,
      "Ġduring": 1320,
      "Ġdeadline": 1321,
      "Ġdosa": 1322,
      "Ġrecommend": 1323,
      "Ġrice": 1324,
      "Ġrules": 1325,
      "Ġraised": 1326,
      "Ġempty": 1327,
      "Ġhiring": 1328,
      "Ġhospital": 1329,
      "Ġleave": 1330,
      "Ġlonger": 1331,
      "Ġlevels": 1332,
      "Ġpainted": 1333,
      "Ġprepared": 1334,
      "Ġprice": 1335,
      "Ġpolicy": 1336,
      "Ġpassword": 1337,
      "Ġincreased": 1338,
      "Ġtomorrow": 1339,
      "Ġrestored": 1340,
      "Ġresignation": 1341,
      "Ġresume": 1342,
      "Ġrescheduled": 1343,
      "Ġrestaurant": 1344,
      "Ġbeach": 1345,
      "Ġcommittee": 1346,
      "Ġexhibition": 1347,
      "Ġexamples": 1348,
      "Ġgovernment": 1349,
      "Ġgrandmother": 1350,
      "Ġguitar": 1351,
      "Ġattracted": 1352,
      "Ġstudying": 1353,
      "Ġrepairs": 1354,
      "Ġadvised": 1355,
      "Ġadmissions": 1356,
      "Ġalmost": 1357,
      "Ġchampionship": 1358,
      "Ġbuilding": 1359,
      "Ġvehicles": 1360,
      "Ġdisrupted": 1361,
      "Ġelectronics": 1362,
      "Ġintroduced": 1363,
      "Ġexplained": 1364,
      "Investors": 1365,
      "Ġuniversity": 1366,
      "Ġwonderful": 1367,
      "Ġproduces": 1368,
      "Ġdownloads": 1369,
      "Diwali": 1370,
      "Regular": 1371,
      "Researchers": 1372,
      "Students": 1373,
      "Ġorchestra": 1374,
      "Ġtechnology": 1375,
      "Ġassignments": 1376,
      "¯à¤¹": 1377,
      "ĩà¤¸": 1378,
      "īà¤¸": 1379,
      "Ńà¤Ĺ": 1380,
      "à¤¶": 1381,
      "à¤Ŀ": 1382,
      "à¤ł": 1383,
      "à¤Ńà¤Ĺ": 1384,
      "à¥ī": 1385,
      "à¥Į": 1386,
      "Ġà¤ļ": 1387,
      "Ġà¤ł": 1388,
      "Ġà¤¯à¤¹": 1389,
      "Ġà¤ĩà¤¸": 1390,
      "à¥ĩà¥¤": 1391,
      "à¥Ģà¤Ĥ": 1392,
      "à¥ĭ?": 1393,
      "à¤¹à¤°": 1394,
      "à¤ķà¤¤": 1395,
      "Ġà¤¹à¤®": 1396,
      "Ġà¤¸à¤¬": 1397,
      "Ġà¤¸à¤ķà¤¤": 1398,
      "à¤¤à¤°": 1399,
      "Ġà¤ªà¤°": 1400,
      "à¤ľà¤¹": 1401,
      "Ġà¤¦à¤«": 1402,
      "Ġà¤¬à¤¹": 1403,
      "à¤Ĺà¤Ńà¤Ĺ": 1404,
      "Ġà¤ħà¤Ĺà¤²": 1405,
      "à¤ĩà¤Ł": 1406,
      "à¤ĩà¤¸": 1407,
      "Ġà¤¨à¤¹": 1408,
      "Ġà¤²à¤Ĺà¤Ńà¤Ĺ": 1409,
      "Ġà¤Ĺà¤¯": 1410,
      "Ġà¤Ĺà¤Ī": 1411,
      "Ġà¤ķà¤°à¤¨": 1412,
      "à¥Īà¤Ĥà¥¤": 1413,
      "Ġà¤µà¤ľà¤¹": 1414,
      "à¤¢": 1415,
      "à¤£": 1416,
      "à¤Ľ": 1417,
      "à¤īà¤¸": 1418,
      "Ġà¤īà¤¸": 1419,
      "à¤¾?": 1420,
      "à¤¾à¤ģ": 1421,
      "à¤°à¤¤": 1422,
      "à¥Ģ,": 1423,
      "Ġà¤ķà¤²": 1424,
      "Ġà¤ķà¤ª": 1425,
      "Ġà¤ķà¤µà¤°": 1426,
      "à¤¨à¤Ł": 1427,
      "à¤¨à¤Ī": 1428,
      "à¤¨à¤µà¤°": 1429,
      "à¥ĭà¤Ĥ": 1430,
      "à¤²à¤¤": 1431,
      "à¤¹à¤®": 1432,
      "à¤ķà¤®": 1433,
      "Ġà¤¹à¤°": 1434,
      "Ġà¤¹à¤µ": 1435,
      "Ġà¤¹à¤«": 1436,
      "Ġà¤¸à¤°": 1437,
      "Ġà¤¸à¤²": 1438,
      "à¤¤à¤¨": 1439,
      "à¤®à¤¤": 1440,
      "à¤®à¤µ": 1441,
      "Ġà¤ªà¤Ł": 1442,
      "à¤ľà¤¬": 1443,
      "Ġà¤®à¤¹": 1444,
      "Ġà¤®à¤¦": 1445,
      "Ġà¤¦à¤¸": 1446,
      "Ġà¤¬à¤¨": 1447,
      "Ġà¤¬à¤Ĺ": 1448,
      "Ġà¤¬à¤¢": 1449,
      "à¤¸à¤®": 1450,
      "à¤¸à¤µà¤°": 1451,
      "à¤ªà¤°": 1452,
      "à¤¼à¤¾": 1453,
      "à¤¼à¥ĭ": 1454,
      "à¤¼à¤¿": 1455,
      "à¤¦à¤²": 1456,
      "à¤¬à¤¹": 1457,
      "à¤¬à¤ļ": 1458,
      "Ġà¤ħà¤¡": 1459,
      "Ġà¤ħà¤ļ": 1460,
      "Ġà¤¤à¤ķ": 1461,
      "à¤ĩà¤¨": 1462,
      "à¤ĩà¤¬": 1463,
      "Ġà¤¨à¤¤": 1464,
      "Ġà¤¨à¤¯": 1465,
      "Ġà¤Ĺà¤°": 1466,
      "Ġà¤Ĺà¤ı": 1467,
      "Ġà¤ľà¤¨à¤µà¤°": 1468,
      "à¤¡à¤²": 1469,
      "à¥Ĥà¤ģ": 1470,
      "Ġà¤ķà¤°à¤¤": 1471,
      "à¤ĸà¤°": 1472,
      "Ġà¤¶à¤¹à¤°": 1473,
      "Ġà¤Ĩà¤ľ": 1474,
      "Ġà¤Ĩà¤ł": 1475,
      "Ġà¤Ĩà¤®à¤¤": 1476,
      "Ġà¤ĸà¤¤": 1477,
      "à¤¶à¤¨": 1478,
      "à¤łà¤ķ": 1479,
      "Ġà¤¸à¤¬à¤¸": 1480,
      "Ġà¤¬à¤¹à¤¨": 1481,
      "à¤īà¤¸à¤¨": 1482,
      "à¤ķà¤®à¤°": 1483,
      "Ġà¤ªà¤Łà¤¨": 1484,
      "Ġà¤®à¤¦à¤¦": 1485,
      "à¥Ĥà¤ģà¥¤": 1486
    },
    "merges": [
      [
        "à",
        "¤"
      ],
      [
        "h",
        "e"
      ],
      [
        "Ġ",
        "t"
      ],
      [
        "à",
        "¥"
      ],
      [
        "Ġ",
        "à¤"
      ],
      [
        "Ġ",
        "a"
      ],
      [
        "e",
        "r"
      ],
      [
        "i",
        "n"
      ],
      [
        "Ġt",
        "he"
      ],
      [
        "e",
        "d"
      ],
      [
        "e",
        "s"
      ],
      [
        "i",
        "s"
      ],
      [
        "Ġ",
        "s"
      ],
      [
        "o",
        "r"
      ],
      [
        "T",
        "he"
      ],
      [
        "o",
        "n"
      ],
      [
        "Ġ",
        "w"
      ],
      [
        "Ġ",
        "c"
      ],
      [
        "e",
        "n"
      ],
      [
        "à¥",
        "ĩ"
      ],
      [
        "Ġ",
        "f"
      ],
      [
        "a",
        "r"
      ],
      [
        "Ġ",
        "n"
      ],
      [
        "Ġ",
        "b"
      ],
      [
        "Ġ",
        "m"
      ],
      [
        "Ġ",
        "o"
      ],
      [
        "a",
        "n"
      ],
      [
        "à¤",
        "¾"
      ],
      [
        "Ġ",
        "d"
      ],
      [
        "Ġ",
        "r"
      ],
      [
        "a",
        "l"
      ],
      [
        "Ġ",
        "e"
      ],
      [
        "a",
        "s"
      ],
      [
        "o",
        "u"
      ],
      [
        "Ġ",
        "h"
      ],
      [
        "a",
        "t"
      ],
      [
        "Ġ",
        "l"
      ],
      [
        "in",
        "g"
      ],
      [
        "Ġn",
        "e"
      ],
      [
        "i",
        "t"
      ],
      [
        "Ġt",
        "h"
      ],
      [
        "à¤",
        "°"
      ],
      [
        "a",
        "y"
      ],
      [
        "e",
        "c"
      ],
      [
        "i",
        "g"
      ],
      [
        "t",
        "s"
      ],
      [
        "v",
        "er"
      ],
      [
        "Ġ",
        "p"
      ],
      [
        "Ġo",
        "f"
      ],
      [
        "r",
        "o"
      ],
      [
        "à¥",
        "Ģ"
      ],
      [
        "i",
        "l"
      ],
      [
        "Ġne",
        "w"
      ],
      [
        "e",
        "l"
      ],
      [
        "t",
        "er"
      ],
      [
        "Ġ",
        "y"
      ],
      [
        "Ġ",
        "in"
      ],
      [
        "Ġt",
        "o"
      ],
      [
        "Ġth",
        "is"
      ],
      [
        "e",
        "e"
      ],
      [
        "i",
        "c"
      ],
      [
        "ig",
        "h"
      ],
      [
        "à¥",
        "į"
      ],
      [
        "e",
        "t"
      ],
      [
        "Ġa",
        "n"
      ],
      [
        "Ġà¤",
        "ķ"
      ],
      [
        "v",
        "e"
      ],
      [
        "Ġr",
        "es"
      ],
      [
        "à¤",
        "¨"
      ],
      [
        "à¤",
        "Ĥ"
      ],
      [
        "à¥",
        "ĭ"
      ],
      [
        "i",
        "r"
      ],
      [
        "i",
        "on"
      ],
      [
        "u",
        "l"
      ],
      [
        "à¥",
        "¤"
      ],
      [
        "Ġf",
        "or"
      ],
      [
        "à¤",
        "²"
      ],
      [
        "à¤",
        "¹"
      ],
      [
        "à¤",
        "ķ"
      ],
      [
        "Ġà¤",
        "¹"
      ],
      [
        "a",
        "in"
      ],
      [
        "e",
        "ar"
      ],
      [
        "l",
        "o"
      ],
      [
        "m",
        "p"
      ],
      [
        "r",
        "e"
      ],
      [
        "t",
        "or"
      ],
      [
        "Ġà¤",
        "¸"
      ],
      [
        "en",
        "t"
      ],
      [
        "Ġb",
        "e"
      ],
      [
        "à¤",
        "¤"
      ],
      [
        "à¤",
        "¿"
      ],
      [
        "d",
        "ay"
      ],
      [
        "o",
        "t"
      ],
      [
        "u",
        "r"
      ],
      [
        "Ġ",
        "he"
      ],
      [
        "Ġ",
        "is"
      ],
      [
        "Ġ",
        "on"
      ],
      [
        "à¤",
        "®"
      ],
      [
        "er",
        "s"
      ],
      [
        "Ġc",
        "o"
      ],
      [
        "al",
        "l"
      ],
      [
        "Ġe",
        "x"
      ],
      [
        "ec",
        "t"
      ],
      [
        "Ġà¤",
        "ª"
      ],
      [
        "e",
        "a"
      ],
      [
        "o",
        "c"
      ],
      [
        "u",
        "n"
      ],
      [
        "u",
        "p"
      ],
      [
        "Ġ",
        "g"
      ],
      [
        "à¤",
        "Ł"
      ],
      [
        "he",
        "r"
      ],
      [
        "Ġa",
        "t"
      ],
      [
        "Ġs",
        "t"
      ],
      [
        "Ġw",
        "as"
      ],
      [
        "Ġw",
        "ee"
      ],
      [
        "ou",
        "n"
      ],
      [
        "ou",
        "r"
      ],
      [
        "Ġh",
        "as"
      ],
      [
        "il",
        "l"
      ],
      [
        "igh",
        "t"
      ],
      [
        "Ġan",
        "d"
      ],
      [
        "Ġwee",
        "k"
      ],
      [
        "à¤",
        "ľ"
      ],
      [
        "Ġà¤",
        "®"
      ],
      [
        "à¤",
        "¯"
      ],
      [
        "à¥",
        "Ī"
      ],
      [
        "Ġà¤",
        "¦"
      ],
      [
        "Ġà¤",
        "¬"
      ],
      [
        "f",
        "or"
      ],
      [
        "g",
        "e"
      ],
      [
        "o",
        "w"
      ],
      [
        "r",
        "i"
      ],
      [
        "s",
        "s"
      ],
      [
        "t",
        "ed"
      ],
      [
        "u",
        "s"
      ],
      [
        "à¤",
        "¸"
      ],
      [
        "Ġa",
        "re"
      ],
      [
        "Ġs",
        "e"
      ],
      [
        "Ġw",
        "ill"
      ],
      [
        "en",
        "d"
      ],
      [
        "an",
        "d"
      ],
      [
        "Ġr",
        "e"
      ],
      [
        "Ġy",
        "ear"
      ],
      [
        "ul",
        "ts"
      ],
      [
        "oun",
        "c"
      ],
      [
        "à¤",
        "ª"
      ],
      [
        "à¤",
        "¼"
      ],
      [
        "à¤",
        "Ĺ"
      ],
      [
        "à¥ĩ",
        "à¤Ĥ"
      ],
      [
        "a",
        "c"
      ],
      [
        "a",
        "ve"
      ],
      [
        "e",
        "ers"
      ],
      [
        "f",
        "ic"
      ],
      [
        "i",
        "es"
      ],
      [
        "l",
        "e"
      ],
      [
        "l",
        "y"
      ],
      [
        "l",
        "es"
      ],
      [
        "n",
        "ounc"
      ],
      [
        "p",
        "p"
      ],
      [
        "p",
        "en"
      ],
      [
        "r",
        "ic"
      ],
      [
        "v",
        "en"
      ],
      [
        "x",
        "t"
      ],
      [
        "Ġa",
        "d"
      ],
      [
        "Ġa",
        "l"
      ],
      [
        "es",
        "t"
      ],
      [
        "Ġs",
        "p"
      ],
      [
        "or",
        "t"
      ],
      [
        "Ġc",
        "h"
      ],
      [
        "Ġc",
        "it"
      ],
      [
        "Ġc",
        "lo"
      ],
      [
        "ar",
        "k"
      ],
      [
        "Ġb",
        "u"
      ],
      [
        "Ġm",
        "or"
      ],
      [
        "Ġo",
        "pen"
      ],
      [
        "an",
        "y"
      ],
      [
        "Ġe",
        "ver"
      ],
      [
        "Ġne",
        "xt"
      ],
      [
        "ig",
        "n"
      ],
      [
        "Ġp",
        "l"
      ],
      [
        "ro",
        "ss"
      ],
      [
        "il",
        "d"
      ],
      [
        "el",
        "l"
      ],
      [
        "igh",
        "ts"
      ],
      [
        "Ġan",
        "nounc"
      ],
      [
        "Ġres",
        "ults"
      ],
      [
        "Ġclo",
        "s"
      ],
      [
        "Ġever",
        "y"
      ],
      [
        "à¤",
        "µ"
      ],
      [
        "à¥",
        "ģ"
      ],
      [
        "H",
        "e"
      ],
      [
        "P",
        "le"
      ],
      [
        "S",
        "he"
      ],
      [
        "b",
        "ou"
      ],
      [
        "c",
        "h"
      ],
      [
        "c",
        "i"
      ],
      [
        "c",
        "ross"
      ],
      [
        "g",
        "et"
      ],
      [
        "h",
        "i"
      ],
      [
        "h",
        "on"
      ],
      [
        "i",
        "m"
      ],
      [
        "i",
        "ver"
      ],
      [
        "l",
        "ect"
      ],
      [
        "m",
        "it"
      ],
      [
        "n",
        "ing"
      ],
      [
        "o",
        "l"
      ],
      [
        "o",
        "s"
      ],
      [
        "p",
        "ort"
      ],
      [
        "s",
        "and"
      ],
      [
        "t",
        "h"
      ],
      [
        "u",
        "m"
      ],
      [
        "Ġ",
        "it"
      ],
      [
        "Ġ",
        "ve"
      ],
      [
        "à¤",
        "¦"
      ],
      [
        "à¤",
        "¬"
      ],
      [
        "Ġt",
        "w"
      ],
      [
        "Ġt",
        "ea"
      ],
      [
        "Ġà¤",
        "ħ"
      ],
      [
        "Ġa",
        "pp"
      ],
      [
        "Ġa",
        "bou"
      ],
      [
        "Ġa",
        "cross"
      ],
      [
        "es",
        "ter"
      ],
      [
        "on",
        "g"
      ],
      [
        "Ġw",
        "or"
      ],
      [
        "Ġw",
        "it"
      ],
      [
        "Ġf",
        "l"
      ],
      [
        "ar",
        "t"
      ],
      [
        "Ġn",
        "ight"
      ],
      [
        "Ġm",
        "e"
      ],
      [
        "Ġm",
        "on"
      ],
      [
        "Ġm",
        "ark"
      ],
      [
        "Ġd",
        "is"
      ],
      [
        "Ġe",
        "ven"
      ],
      [
        "Ġe",
        "lect"
      ],
      [
        "as",
        "e"
      ],
      [
        "as",
        "t"
      ],
      [
        "ou",
        "sand"
      ],
      [
        "Ġh",
        "is"
      ],
      [
        "Ġh",
        "our"
      ],
      [
        "Ġh",
        "ave"
      ],
      [
        "at",
        "e"
      ],
      [
        "at",
        "er"
      ],
      [
        "at",
        "ch"
      ],
      [
        "Ġl",
        "ast"
      ],
      [
        "Ġth",
        "ousand"
      ],
      [
        "ay",
        "ed"
      ],
      [
        "Ġy",
        "ou"
      ],
      [
        "Ġy",
        "our"
      ],
      [
        "Ġin",
        "t"
      ],
      [
        "et",
        "ter"
      ],
      [
        "mp",
        "any"
      ],
      [
        "Ġbe",
        "for"
      ],
      [
        "Ġco",
        "mpany"
      ],
      [
        "Ġex",
        "p"
      ],
      [
        "us",
        "e"
      ],
      [
        "Ġsp",
        "ec"
      ],
      [
        "Ġcit",
        "y"
      ],
      [
        "Ġpl",
        "ay"
      ],
      [
        "Ġannounc",
        "ed"
      ],
      [
        "Ple",
        "ase"
      ],
      [
        "ci",
        "ent"
      ],
      [
        "Ġabou",
        "t"
      ],
      [
        "Ġwit",
        "h"
      ],
      [
        "Ġeven",
        "ing"
      ],
      [
        "Ġbefor",
        "e"
      ],
      [
        "Ġà¤",
        "¤"
      ],
      [
        "Ġà¤",
        "°"
      ],
      [
        "à¥Ī",
        "à¥¤"
      ],
      [
        "à¤",
        "ĩ"
      ],
      [
        "Ġà¤",
        "¨"
      ],
      [
        "Ġà¤",
        "²"
      ],
      [
        "Ġà¤",
        "Ĺ"
      ],
      [
        "Ġà¤",
        "ľ"
      ],
      [
        "à¤ª",
        "à¤¨"
      ],
      [
        "à¤¼",
        "à¥į"
      ],
      [
        "C",
        "an"
      ],
      [
        "F",
        "ar"
      ],
      [
        "I",
        "n"
      ],
      [
        "M",
        "y"
      ],
      [
        "M",
        "on"
      ],
      [
        "O",
        "ur"
      ],
      [
        "V",
        "ol"
      ],
      [
        "a",
        "b"
      ],
      [
        "a",
        "d"
      ],
      [
        "a",
        "g"
      ],
      [
        "a",
        "m"
      ],
      [
        "a",
        "v"
      ],
      [
        "a",
        "mp"
      ],
      [
        "a",
        "ge"
      ],
      [
        "a",
        "use"
      ],
      [
        "b",
        "r"
      ],
      [
        "b",
        "mit"
      ],
      [
        "c",
        "he"
      ],
      [
        "c",
        "er"
      ],
      [
        "c",
        "her"
      ],
      [
        "d",
        "e"
      ],
      [
        "d",
        "u"
      ],
      [
        "d",
        "en"
      ],
      [
        "d",
        "ge"
      ],
      [
        "f",
        "f"
      ],
      [
        "f",
        "ter"
      ],
      [
        "f",
        "all"
      ],
      [
        "g",
        "u"
      ],
      [
        "g",
        "in"
      ],
      [
        "g",
        "ion"
      ],
      [
        "g",
        "ain"
      ],
      [
        "h",
        "o"
      ],
      [
        "i",
        "v"
      ],
      [
        "i",
        "x"
      ],
      [
        "i",
        "al"
      ],
      [
        "k",
        "s"
      ],
      [
        "l",
        "d"
      ],
      [
        "l",
        "p"
      ],
      [
        "l",
        "ee"
      ],
      [
        "m",
        "ed"
      ],
      [
        "m",
        "ers"
      ],
      [
        "o",
        "m"
      ],
      [
        "o",
        "ver"
      ],
      [
        "r",
        "a"
      ],
      [
        "r",
        "in"
      ],
      [
        "r",
        "en"
      ],
      [
        "s",
        "t"
      ],
      [
        "t",
        "eers"
      ],
      [
        "u",
        "t"
      ],
      [
        "u",
        "ar"
      ],
      [
        "u",
        "bmit"
      ],
      [
        "v",
        "es"
      ],
      [
        "v",
        "is"
      ],
      [
        "v",
        "el"
      ],
      [
        "w",
        "ay"
      ],
      [
        "Ġ",
        "un"
      ],
      [
        "Ġ",
        "Mon"
      ],
      [
        "à¤",
        "¡"
      ],
      [
        "à¤",
        "Ī"
      ],
      [
        "à¤",
        "ı"
      ],
      [
        "Ġt",
        "r"
      ],
      [
        "à¥",
        "Ĥ"
      ],
      [
        "Ġa",
        "ir"
      ],
      [
        "Ġa",
        "fter"
      ],
      [
        "Ġa",
        "gain"
      ],
      [
        "er",
        "for"
      ],
      [
        "Ġthe",
        "ir"
      ],
      [
        "is",
        "e"
      ],
      [
        "is",
        "h"
      ],
      [
        "is",
        "t"
      ],
      [
        "Ġs",
        "er"
      ],
      [
        "Ġs",
        "tor"
      ],
      [
        "Ġs",
        "end"
      ],
      [
        "Ġs",
        "lee"
      ],
      [
        "Ġs",
        "ubmit"
      ],
      [
        "on",
        "cer"
      ],
      [
        "Ġw",
        "on"
      ],
      [
        "Ġc",
        "oncer"
      ],
      [
        "Ġf",
        "ro"
      ],
      [
        "Ġf",
        "est"
      ],
      [
        "ar",
        "ed"
      ],
      [
        "Ġn",
        "o"
      ],
      [
        "Ġn",
        "ot"
      ],
      [
        "Ġb",
        "an"
      ],
      [
        "Ġb",
        "at"
      ],
      [
        "Ġb",
        "ec"
      ],
      [
        "Ġb",
        "ri"
      ],
      [
        "Ġm",
        "atch"
      ],
      [
        "Ġo",
        "ver"
      ],
      [
        "an",
        "t"
      ],
      [
        "an",
        "gu"
      ],
      [
        "Ġd",
        "el"
      ],
      [
        "Ġd",
        "oc"
      ],
      [
        "Ġd",
        "ow"
      ],
      [
        "Ġd",
        "rin"
      ],
      [
        "Ġr",
        "ain"
      ],
      [
        "Ġr",
        "iver"
      ],
      [
        "Ġe",
        "ight"
      ],
      [
        "Ġe",
        "ff"
      ],
      [
        "Ġh",
        "igh"
      ],
      [
        "at",
        "ed"
      ],
      [
        "at",
        "ion"
      ],
      [
        "Ġl",
        "i"
      ],
      [
        "Ġl",
        "ear"
      ],
      [
        "Ġl",
        "ights"
      ],
      [
        "Ġl",
        "ate"
      ],
      [
        "Ġl",
        "etter"
      ],
      [
        "Ġl",
        "angu"
      ],
      [
        "Ġth",
        "an"
      ],
      [
        "ver",
        "al"
      ],
      [
        "Ġp",
        "ro"
      ],
      [
        "Ġp",
        "erfor"
      ],
      [
        "Ġof",
        "f"
      ],
      [
        "Ġof",
        "fic"
      ],
      [
        "ter",
        "y"
      ],
      [
        "Ġy",
        "ester"
      ],
      [
        "ion",
        "s"
      ],
      [
        "tor",
        "s"
      ],
      [
        "tor",
        "y"
      ],
      [
        "Ġbe",
        "en"
      ],
      [
        "Ġhe",
        "av"
      ],
      [
        "Ġhe",
        "lp"
      ],
      [
        "Ġon",
        "e"
      ],
      [
        "oc",
        "al"
      ],
      [
        "un",
        "teers"
      ],
      [
        "Ġst",
        "art"
      ],
      [
        "Ġse",
        "veral"
      ],
      [
        "Ġre",
        "gion"
      ],
      [
        "Ġal",
        "ong"
      ],
      [
        "Ġch",
        "ild"
      ],
      [
        "Ġmor",
        "e"
      ],
      [
        "Ġmor",
        "ning"
      ],
      [
        "get",
        "ab"
      ],
      [
        "hon",
        "e"
      ],
      [
        "Ġit",
        "s"
      ],
      [
        "Ġve",
        "getab"
      ],
      [
        "Ġtw",
        "o"
      ],
      [
        "Ġfl",
        "ights"
      ],
      [
        "Ġmon",
        "th"
      ],
      [
        "Ġmark",
        "et"
      ],
      [
        "Ġdis",
        "c"
      ],
      [
        "Ġhour",
        "s"
      ],
      [
        "Ġthousand",
        "s"
      ],
      [
        "Ġint",
        "o"
      ],
      [
        "Ġspec",
        "ial"
      ],
      [
        "Far",
        "mers"
      ],
      [
        "Vol",
        "unteers"
      ],
      [
        "ag",
        "es"
      ],
      [
        "du",
        "c"
      ],
      [
        "gin",
        "eers"
      ],
      [
        "iv",
        "al"
      ],
      [
        "ĠMon",
        "day"
      ],
      [
        "Ġair",
        "port"
      ],
      [
        "Ġslee",
        "p"
      ],
      [
        "Ġconcer",
        "t"
      ],
      [
        "Ġfro",
        "m"
      ],
      [
        "Ġfest",
        "ival"
      ],
      [
        "Ġban",
        "k"
      ],
      [
        "Ġbat",
        "tery"
      ],
      [
        "Ġbec",
        "ause"
      ],
      [
        "Ġbri",
        "dge"
      ],
      [
        "Ġdel",
        "ayed"
      ],
      [
        "Ġdow",
        "n"
      ],
      [
        "Ġhigh",
        "way"
      ],
      [
        "Ġlangu",
        "ages"
      ],
      [
        "Ġperfor",
        "med"
      ],
      [
        "Ġoffic",
        "e"
      ],
      [
        "Ġyester",
        "day"
      ],
      [
        "Ġstart",
        "up"
      ],
      [
        "Ġvegetab",
        "les"
      ],
      [
        "à¤¾",
        "à¥¤"
      ],
      [
        "Ġà¤ķ",
        "à¤°"
      ],
      [
        "à¥Ī",
        "à¤Ĥ"
      ],
      [
        "Ġà¤ħ",
        "à¤ªà¤¨"
      ],
      [
        "à¤",
        "«"
      ],
      [
        "à¤",
        "ĸ"
      ],
      [
        "à¤",
        "ļ"
      ],
      [
        "Ġà¤",
        "¶"
      ],
      [
        "Ġà¤",
        "Ń"
      ],
      [
        "à¤¹",
        "à¤²"
      ],
      [
        "Ġà¤ª",
        "à¤¹à¤²"
      ],
      [
        "Ġà¤¬",
        "à¤ľ"
      ],
      [
        "à¤µ",
        "à¤°"
      ],
      [
        "'",
        "s"
      ],
      [
        "B",
        "en"
      ],
      [
        "C",
        "h"
      ],
      [
        "D",
        "i"
      ],
      [
        "D",
        "el"
      ],
      [
        "D",
        "oc"
      ],
      [
        "E",
        "n"
      ],
      [
        "F",
        "ri"
      ],
      [
        "H",
        "ea"
      ],
      [
        "I",
        "t"
      ],
      [
        "J",
        "an"
      ],
      [
        "L",
        "ocal"
      ],
      [
        "P",
        "at"
      ],
      [
        "P",
        "ow"
      ],
      [
        "P",
        "ric"
      ],
      [
        "R",
        "e"
      ],
      [
        "R",
        "es"
      ],
      [
        "R",
        "ain"
      ],
      [
        "S",
        "t"
      ],
      [
        "S",
        "un"
      ],
      [
        "S",
        "cient"
      ],
      [
        "T",
        "h"
      ],
      [
        "T",
        "ra"
      ],
      [
        "W",
        "e"
      ],
      [
        "W",
        "h"
      ],
      [
        "W",
        "ater"
      ],
      [
        "a",
        "k"
      ],
      [
        "a",
        "is"
      ],
      [
        "a",
        "ir"
      ],
      [
        "a",
        "ur"
      ],
      [
        "b",
        "it"
      ],
      [
        "b",
        "il"
      ],
      [
        "b",
        "all"
      ],
      [
        "b",
        "ac"
      ],
      [
        "c",
        "k"
      ],
      [
        "c",
        "l"
      ],
      [
        "c",
        "lo"
      ],
      [
        "c",
        "re"
      ],
      [
        "c",
        "ell"
      ],
      [
        "c",
        "ise"
      ],
      [
        "d",
        "i"
      ],
      [
        "d",
        "l"
      ],
      [
        "d",
        "y"
      ],
      [
        "d",
        "er"
      ],
      [
        "d",
        "ed"
      ],
      [
        "d",
        "ing"
      ],
      [
        "d",
        "ul"
      ],
      [
        "d",
        "get"
      ],
      [
        "e",
        "w"
      ],
      [
        "e",
        "ed"
      ],
      [
        "e",
        "at"
      ],
      [
        "e",
        "ts"
      ],
      [
        "e",
        "br"
      ],
      [
        "e",
        "vel"
      ],
      [
        "f",
        "e"
      ],
      [
        "f",
        "ul"
      ],
      [
        "f",
        "fic"
      ],
      [
        "g",
        "y"
      ],
      [
        "g",
        "al"
      ],
      [
        "g",
        "ul"
      ],
      [
        "g",
        "ot"
      ],
      [
        "h",
        "n"
      ],
      [
        "h",
        "ar"
      ],
      [
        "h",
        "ic"
      ],
      [
        "i",
        "et"
      ],
      [
        "i",
        "ve"
      ],
      [
        "i",
        "mp"
      ],
      [
        "i",
        "fic"
      ],
      [
        "i",
        "de"
      ],
      [
        "i",
        "ew"
      ],
      [
        "j",
        "ect"
      ],
      [
        "k",
        "ed"
      ],
      [
        "k",
        "et"
      ],
      [
        "l",
        "ain"
      ],
      [
        "l",
        "im"
      ],
      [
        "l",
        "ared"
      ],
      [
        "l",
        "ated"
      ],
      [
        "m",
        "is"
      ],
      [
        "m",
        "or"
      ],
      [
        "m",
        "en"
      ],
      [
        "m",
        "ent"
      ],
      [
        "m",
        "ot"
      ],
      [
        "m",
        "end"
      ],
      [
        "m",
        "mit"
      ],
      [
        "m",
        "os"
      ],
      [
        "m",
        "ester"
      ],
      [
        "m",
        "art"
      ],
      [
        "n",
        "a"
      ],
      [
        "n",
        "er"
      ],
      [
        "n",
        "ow"
      ],
      [
        "n",
        "ment"
      ],
      [
        "o",
        "d"
      ],
      [
        "o",
        "es"
      ],
      [
        "o",
        "on"
      ],
      [
        "o",
        "ir"
      ],
      [
        "o",
        "lo"
      ],
      [
        "o",
        "ot"
      ],
      [
        "o",
        "om"
      ],
      [
        "o",
        "bil"
      ],
      [
        "o",
        "ked"
      ],
      [
        "p",
        "s"
      ],
      [
        "p",
        "it"
      ],
      [
        "p",
        "ly"
      ],
      [
        "p",
        "ared"
      ],
      [
        "p",
        "hone"
      ],
      [
        "p",
        "air"
      ],
      [
        "q",
        "uar"
      ],
      [
        "r",
        "t"
      ],
      [
        "r",
        "on"
      ],
      [
        "r",
        "ing"
      ],
      [
        "r",
        "ee"
      ],
      [
        "r",
        "up"
      ],
      [
        "r",
        "and"
      ],
      [
        "r",
        "ac"
      ],
      [
        "s",
        "w"
      ],
      [
        "s",
        "on"
      ],
      [
        "s",
        "it"
      ],
      [
        "s",
        "ions"
      ],
      [
        "s",
        "lated"
      ],
      [
        "s",
        "oon"
      ],
      [
        "t",
        "y"
      ],
      [
        "t",
        "ing"
      ],
      [
        "t",
        "ee"
      ],
      [
        "t",
        "her"
      ],
      [
        "t",
        "aur"
      ],
      [
        "t",
        "rac"
      ],
      [
        "u",
        "e"
      ],
      [
        "u",
        "it"
      ],
      [
        "u",
        "ts"
      ],
      [
        "u",
        "el"
      ],
      [
        "u",
        "all"
      ],
      [
        "u",
        "den"
      ],
      [
        "u",
        "dy"
      ],
      [
        "v",
        "y"
      ],
      [
        "v",
        "ed"
      ],
      [
        "v",
        "ar"
      ],
      [
        "v",
        "ent"
      ],
      [
        "v",
        "iew"
      ],
      [
        "v",
        "oir"
      ],
      [
        "w",
        "al"
      ],
      [
        "w",
        "ee"
      ],
      [
        "w",
        "ers"
      ],
      [
        "w",
        "ave"
      ],
      [
        "y",
        "mp"
      ],
      [
        "y",
        "cl"
      ],
      [
        "Ġ",
        "or"
      ],
      [
        "Ġ",
        "en"
      ],
      [
        "Ġ",
        "up"
      ],
      [
        "Ġ",
        "us"
      ],
      [
        "Ġ",
        "In"
      ],
      [
        "Ġ",
        "vis"
      ],
      [
        "Ġ",
        "Ben"
      ],
      [
        "Ġ",
        "Del"
      ],
      [
        "Ġ",
        "Fri"
      ],
      [
        "Ġ",
        "Jan"
      ],
      [
        "Ġ",
        "Pat"
      ],
      [
        "Ġ",
        "Sun"
      ],
      [
        "Ġ",
        "imp"
      ],
      [
        "Ġ",
        "quar"
      ],
      [
        "Ġ",
        "var"
      ],
      [
        "ı",
        "à¤ķ"
      ],
      [
        "Ķ",
        "à¤°"
      ],
      [
        "à¤",
        "·"
      ],
      [
        "à¤",
        "ģ"
      ],
      [
        "he",
        "f"
      ],
      [
        "he",
        "n"
      ],
      [
        "Ġt",
        "en"
      ],
      [
        "Ġt",
        "ec"
      ],
      [
        "Ġt",
        "re"
      ],
      [
        "Ġt",
        "ur"
      ],
      [
        "Ġt",
        "est"
      ],
      [
        "Ġt",
        "ell"
      ],
      [
        "Ġt",
        "im"
      ],
      [
        "Ġt",
        "ak"
      ],
      [
        "à¥",
        "ĥ"
      ],
      [
        "Ġà¤",
        "¡"
      ],
      [
        "Ġà¤",
        "¥"
      ],
      [
        "Ġà¤",
        "«"
      ],
      [
        "Ġà¤",
        "µ"
      ],
      [
        "Ġà¤",
        "Ĩ"
      ],
      [
        "Ġà¤",
        "ĸ"
      ],
      [
        "Ġà¤",
        "ĺ"
      ],
      [
        "Ġà¤",
        "Ł"
      ],
      [
        "Ġà¤",
        "ıà¤ķ"
      ],
      [
        "Ġà¤",
        "Ķà¤°"
      ],
      [
        "Ġa",
        "s"
      ],
      [
        "Ġa",
        "ver"
      ],
      [
        "Ġa",
        "ss"
      ],
      [
        "Ġa",
        "rt"
      ],
      [
        "er",
        "a"
      ],
      [
        "er",
        "e"
      ],
      [
        "er",
        "ing"
      ],
      [
        "er",
        "cise"
      ],
      [
        "er",
        "voir"
      ],
      [
        "in",
        "e"
      ],
      [
        "in",
        "ut"
      ],
      [
        "in",
        "ish"
      ],
      [
        "in",
        "ner"
      ],
      [
        "es",
        "ign"
      ],
      [
        "es",
        "son"
      ],
      [
        "is",
        "ts"
      ],
      [
        "is",
        "ter"
      ],
      [
        "Ġs",
        "ing"
      ],
      [
        "Ġs",
        "up"
      ],
      [
        "Ġs",
        "ign"
      ],
      [
        "Ġs",
        "ell"
      ],
      [
        "Ġs",
        "cient"
      ],
      [
        "Ġs",
        "ho"
      ],
      [
        "Ġs",
        "ix"
      ],
      [
        "Ġs",
        "har"
      ],
      [
        "Ġs",
        "mart"
      ],
      [
        "Ġs",
        "now"
      ],
      [
        "Ġs",
        "wee"
      ],
      [
        "Ġs",
        "ymp"
      ],
      [
        "Ġs",
        "ister"
      ],
      [
        "or",
        "d"
      ],
      [
        "or",
        "s"
      ],
      [
        "The",
        "y"
      ],
      [
        "on",
        "e"
      ],
      [
        "on",
        "al"
      ],
      [
        "Ġw",
        "al"
      ],
      [
        "Ġw",
        "ent"
      ],
      [
        "Ġw",
        "all"
      ],
      [
        "Ġw",
        "ell"
      ],
      [
        "Ġw",
        "ater"
      ],
      [
        "Ġw",
        "atch"
      ],
      [
        "Ġw",
        "eat"
      ],
      [
        "Ġw",
        "hen"
      ],
      [
        "Ġw",
        "ere"
      ],
      [
        "Ġc",
        "an"
      ],
      [
        "Ġc",
        "ou"
      ],
      [
        "Ġc",
        "el"
      ],
      [
        "Ġc",
        "up"
      ],
      [
        "Ġc",
        "ounc"
      ],
      [
        "Ġc",
        "le"
      ],
      [
        "Ġc",
        "ric"
      ],
      [
        "Ġc",
        "ross"
      ],
      [
        "Ġc",
        "am"
      ],
      [
        "Ġc",
        "lim"
      ],
      [
        "Ġc",
        "ycl"
      ],
      [
        "Ġc",
        "hef"
      ],
      [
        "en",
        "u"
      ],
      [
        "Ġf",
        "as"
      ],
      [
        "Ġf",
        "ir"
      ],
      [
        "Ġf",
        "lo"
      ],
      [
        "Ġf",
        "un"
      ],
      [
        "Ġf",
        "ri"
      ],
      [
        "Ġf",
        "ac"
      ],
      [
        "Ġf",
        "ix"
      ],
      [
        "Ġf",
        "ish"
      ],
      [
        "Ġf",
        "eed"
      ],
      [
        "Ġf",
        "ive"
      ],
      [
        "Ġf",
        "oot"
      ],
      [
        "Ġf",
        "uel"
      ],
      [
        "Ġf",
        "inish"
      ],
      [
        "ar",
        "y"
      ],
      [
        "ar",
        "den"
      ],
      [
        "Ġn",
        "ort"
      ],
      [
        "Ġb",
        "y"
      ],
      [
        "Ġb",
        "ro"
      ],
      [
        "Ġb",
        "el"
      ],
      [
        "Ġb",
        "est"
      ],
      [
        "Ġb",
        "etter"
      ],
      [
        "Ġb",
        "ad"
      ],
      [
        "Ġm",
        "y"
      ],
      [
        "Ġm",
        "ee"
      ],
      [
        "Ġm",
        "et"
      ],
      [
        "Ġm",
        "ur"
      ],
      [
        "Ġm",
        "ill"
      ],
      [
        "Ġm",
        "us"
      ],
      [
        "Ġm",
        "any"
      ],
      [
        "Ġm",
        "use"
      ],
      [
        "Ġm",
        "obil"
      ],
      [
        "Ġm",
        "inut"
      ],
      [
        "Ġm",
        "enu"
      ],
      [
        "Ġo",
        "ld"
      ],
      [
        "Ġo",
        "ut"
      ],
      [
        "Ġo",
        "uts"
      ],
      [
        "an",
        "ed"
      ],
      [
        "an",
        "ge"
      ],
      [
        "an",
        "ted"
      ],
      [
        "an",
        "slated"
      ],
      [
        "Ġd",
        "al"
      ],
      [
        "Ġd",
        "at"
      ],
      [
        "Ġd",
        "ay"
      ],
      [
        "Ġd",
        "ec"
      ],
      [
        "Ġd",
        "ro"
      ],
      [
        "Ġd",
        "ir"
      ],
      [
        "Ġd",
        "ur"
      ],
      [
        "Ġd",
        "ea"
      ],
      [
        "Ġd",
        "os"
      ],
      [
        "Ġd",
        "oes"
      ],
      [
        "Ġd",
        "ue"
      ],
      [
        "Ġd",
        "inner"
      ],
      [
        "Ġd",
        "esign"
      ],
      [
        "Ġr",
        "ec"
      ],
      [
        "Ġr",
        "ic"
      ],
      [
        "Ġr",
        "ul"
      ],
      [
        "Ġr",
        "ais"
      ],
      [
        "Ġr",
        "oom"
      ],
      [
        "al",
        "th"
      ],
      [
        "Ġe",
        "mp"
      ],
      [
        "Ġe",
        "vent"
      ],
      [
        "as",
        "ed"
      ],
      [
        "as",
        "sw"
      ],
      [
        "as",
        "onal"
      ],
      [
        "Ġh",
        "ir"
      ],
      [
        "Ġh",
        "ot"
      ],
      [
        "Ġh",
        "all"
      ],
      [
        "Ġh",
        "im"
      ],
      [
        "Ġh",
        "os"
      ],
      [
        "at",
        "h"
      ],
      [
        "at",
        "wave"
      ],
      [
        "Ġl",
        "ea"
      ],
      [
        "Ġl",
        "ong"
      ],
      [
        "Ġl",
        "ater"
      ],
      [
        "Ġl",
        "ocal"
      ],
      [
        "Ġl",
        "evel"
      ],
      [
        "Ġl",
        "esson"
      ],
      [
        "Ġne",
        "ed"
      ],
      [
        "Ġne",
        "ar"
      ],
      [
        "it",
        "s"
      ],
      [
        "it",
        "ors"
      ],
      [
        "Ġth",
        "ree"
      ],
      [
        "ec",
        "ts"
      ],
      [
        "Ġp",
        "ain"
      ],
      [
        "Ġp",
        "re"
      ],
      [
        "Ġp",
        "ric"
      ],
      [
        "Ġp",
        "ark"
      ],
      [
        "Ġp",
        "ol"
      ],
      [
        "Ġp",
        "hone"
      ],
      [
        "Ġp",
        "assw"
      ],
      [
        "Ġp",
        "ath"
      ],
      [
        "ro",
        "w"
      ],
      [
        "ro",
        "ve"
      ],
      [
        "ro",
        "duc"
      ],
      [
        "ro",
        "ved"
      ],
      [
        "à¥Ģ",
        "à¥¤"
      ],
      [
        "il",
        "t"
      ],
      [
        "il",
        "y"
      ],
      [
        "el",
        "y"
      ],
      [
        "ter",
        "ly"
      ],
      [
        "Ġin",
        "cre"
      ],
      [
        "Ġto",
        "o"
      ],
      [
        "Ġto",
        "day"
      ],
      [
        "Ġto",
        "mor"
      ],
      [
        "ic",
        "s"
      ],
      [
        "ic",
        "y"
      ],
      [
        "Ġan",
        "cient"
      ],
      [
        "Ġres",
        "tor"
      ],
      [
        "Ġres",
        "ign"
      ],
      [
        "Ġres",
        "um"
      ],
      [
        "Ġres",
        "che"
      ],
      [
        "Ġres",
        "taur"
      ],
      [
        "Ġres",
        "ervoir"
      ],
      [
        "Ġfor",
        "got"
      ],
      [
        "à¤ķ",
        "à¤²"
      ],
      [
        "ear",
        "cher"
      ],
      [
        "lo",
        "ad"
      ],
      [
        "ent",
        "y"
      ],
      [
        "Ġbe",
        "ac"
      ],
      [
        "ur",
        "u"
      ],
      [
        "Ġhe",
        "r"
      ],
      [
        "Ġhe",
        "alth"
      ],
      [
        "Ġhe",
        "atwave"
      ],
      [
        "Ġco",
        "ver"
      ],
      [
        "Ġco",
        "de"
      ],
      [
        "Ġco",
        "mmit"
      ],
      [
        "Ġco",
        "oked"
      ],
      [
        "Ġex",
        "hi"
      ],
      [
        "Ġex",
        "am"
      ],
      [
        "Ġex",
        "amp"
      ],
      [
        "Ġex",
        "ercise"
      ],
      [
        "ect",
        "ed"
      ],
      [
        "ect",
        "ly"
      ],
      [
        "oc",
        "k"
      ],
      [
        "Ġg",
        "ot"
      ],
      [
        "Ġg",
        "over"
      ],
      [
        "Ġg",
        "rand"
      ],
      [
        "Ġg",
        "uit"
      ],
      [
        "Ġg",
        "one"
      ],
      [
        "Ġg",
        "arden"
      ],
      [
        "à¤Ł",
        "à¤°"
      ],
      [
        "her",
        "n"
      ],
      [
        "Ġat",
        "trac"
      ],
      [
        "Ġst",
        "ayed"
      ],
      [
        "Ġst",
        "ation"
      ],
      [
        "Ġst",
        "udy"
      ],
      [
        "Ġst",
        "ock"
      ],
      [
        "oun",
        "t"
      ],
      [
        "Ġweek",
        "end"
      ],
      [
        "ri",
        "ed"
      ],
      [
        "Ġse",
        "ven"
      ],
      [
        "Ġse",
        "mester"
      ],
      [
        "Ġse",
        "asonal"
      ],
      [
        "end",
        "s"
      ],
      [
        "Ġre",
        "port"
      ],
      [
        "Ġre",
        "pair"
      ],
      [
        "Ġre",
        "view"
      ],
      [
        "à¤ª",
        "à¤¯"
      ],
      [
        "à¤Ĺ",
        "à¤²"
      ],
      [
        "à¥ĩà¤Ĥ",
        "à¥¤"
      ],
      [
        "pp",
        "ed"
      ],
      [
        "Ġad",
        "ults"
      ],
      [
        "Ġad",
        "vis"
      ],
      [
        "Ġad",
        "ded"
      ],
      [
        "Ġad",
        "mis"
      ],
      [
        "Ġal",
        "l"
      ],
      [
        "Ġal",
        "mos"
      ],
      [
        "Ġsp",
        "ring"
      ],
      [
        "Ġch",
        "amp"
      ],
      [
        "Ġch",
        "ange"
      ],
      [
        "Ġcit",
        "ies"
      ],
      [
        "Ġbu",
        "g"
      ],
      [
        "Ġbu",
        "ild"
      ],
      [
        "Ġbu",
        "dget"
      ],
      [
        "Ġbu",
        "ilt"
      ],
      [
        "Ġopen",
        "ed"
      ],
      [
        "ign",
        "men"
      ],
      [
        "Ġpl",
        "anted"
      ],
      [
        "ild",
        "ren"
      ],
      [
        "Ġannounc",
        "e"
      ],
      [
        "Ġclos",
        "e"
      ],
      [
        "Ġclos",
        "ed"
      ],
      [
        "Ġclos",
        "es"
      ],
      [
        "Ġclos",
        "ely"
      ],
      [
        "à¤µ",
        "à¤¹"
      ],
      [
        "hi",
        "p"
      ],
      [
        "hon",
        "y"
      ],
      [
        "iver",
        "sit"
      ],
      [
        "um",
        "ent"
      ],
      [
        "Ġve",
        "hic"
      ],
      [
        "Ġtw",
        "enty"
      ],
      [
        "Ġtea",
        "m"
      ],
      [
        "Ġtea",
        "cher"
      ],
      [
        "Ġapp",
        "roved"
      ],
      [
        "Ġwor",
        "k"
      ],
      [
        "Ġwor",
        "ks"
      ],
      [
        "Ġwor",
        "ried"
      ],
      [
        "Ġfl",
        "ight"
      ],
      [
        "Ġmon",
        "soon"
      ],
      [
        "Ġmark",
        "ets"
      ],
      [
        "Ġdis",
        "rup"
      ],
      [
        "Ġelect",
        "ion"
      ],
      [
        "Ġelect",
        "ric"
      ],
      [
        "Ġelect",
        "ron"
      ],
      [
        "Ġhis",
        "tory"
      ],
      [
        "Ġint",
        "roduc"
      ],
      [
        "Ġexp",
        "and"
      ],
      [
        "Ġexp",
        "lain"
      ],
      [
        "Ġexp",
        "ected"
      ],
      [
        "Ġspec",
        "ies"
      ],
      [
        "Ġplay",
        "s"
      ],
      [
        "Ġplay",
        "ing"
      ],
      [
        "Ġà¤°",
        "à¤¹"
      ],
      [
        "In",
        "ves"
      ],
      [
        "br",
        "ary"
      ],
      [
        "che",
        "st"
      ],
      [
        "ho",
        "od"
      ],
      [
        "om",
        "mend"
      ],
      [
        "over",
        "ed"
      ],
      [
        "uar",
        "y"
      ],
      [
        "Ġun",
        "its"
      ],
      [
        "Ġun",
        "iversit"
      ],
      [
        "Ġtr",
        "ain"
      ],
      [
        "Ġtr",
        "anslated"
      ],
      [
        "Ġser",
        "ver"
      ],
      [
        "Ġser",
        "ves"
      ],
      [
        "Ġstor",
        "e"
      ],
      [
        "Ġstor",
        "ies"
      ],
      [
        "Ġsubmit",
        "ted"
      ],
      [
        "Ġwon",
        "der"
      ],
      [
        "Ġno",
        "vel"
      ],
      [
        "Ġno",
        "ise"
      ],
      [
        "Ġover",
        "all"
      ],
      [
        "ant",
        "ly"
      ],
      [
        "Ġdoc",
        "tor"
      ],
      [
        "Ġdoc",
        "ument"
      ],
      [
        "Ġdrin",
        "k"
      ],
      [
        "Ġdrin",
        "ks"
      ],
      [
        "Ġrain",
        "ed"
      ],
      [
        "Ġeff",
        "ect"
      ],
      [
        "Ġeff",
        "ects"
      ],
      [
        "Ġli",
        "fe"
      ],
      [
        "Ġli",
        "brary"
      ],
      [
        "Ġlear",
        "n"
      ],
      [
        "Ġlear",
        "ning"
      ],
      [
        "Ġpro",
        "duc"
      ],
      [
        "Ġpro",
        "ject"
      ],
      [
        "Ġoff",
        "ering"
      ],
      [
        "ions",
        "hip"
      ],
      [
        "Ġheav",
        "y"
      ],
      [
        "Ġheav",
        "ily"
      ],
      [
        "Ġhelp",
        "s"
      ],
      [
        "Ġchild",
        "ren"
      ],
      [
        "Ġchild",
        "hood"
      ],
      [
        "Ġdisc",
        "ount"
      ],
      [
        "Ġdisc",
        "overed"
      ],
      [
        "Ġbank",
        "ing"
      ],
      [
        "Ġdown",
        "load"
      ],
      [
        "Ch",
        "ildren"
      ],
      [
        "Di",
        "wal"
      ],
      [
        "Doc",
        "tors"
      ],
      [
        "En",
        "gineers"
      ],
      [
        "Hea",
        "vy"
      ],
      [
        "Pow",
        "er"
      ],
      [
        "Pric",
        "es"
      ],
      [
        "Re",
        "gul"
      ],
      [
        "Res",
        "earcher"
      ],
      [
        "Rain",
        "fall"
      ],
      [
        "St",
        "uden"
      ],
      [
        "Scient",
        "ists"
      ],
      [
        "Th",
        "is"
      ],
      [
        "Tra",
        "ffic"
      ],
      [
        "Wh",
        "at"
      ],
      [
        "bit",
        "ion"
      ],
      [
        "bac",
        "k"
      ],
      [
        "clo",
        "ck"
      ],
      [
        "cell",
        "ed"
      ],
      [
        "di",
        "a"
      ],
      [
        "dl",
        "ine"
      ],
      [
        "dul",
        "ed"
      ],
      [
        "ebr",
        "ated"
      ],
      [
        "gal",
        "uru"
      ],
      [
        "hn",
        "olo"
      ],
      [
        "iet",
        "ies"
      ],
      [
        "ific",
        "antly"
      ],
      [
        "mot",
        "her"
      ],
      [
        "pit",
        "al"
      ],
      [
        "ther",
        "s"
      ],
      [
        "uall",
        "y"
      ],
      [
        "Ġor",
        "chest"
      ],
      [
        "Ġen",
        "gineers"
      ],
      [
        "Ġus",
        "ually"
      ],
      [
        "ĠIn",
        "dia"
      ],
      [
        "Ġvis",
        "itors"
      ],
      [
        "ĠBen",
        "galuru"
      ],
      [
        "ĠDel",
        "hi"
      ],
      [
        "ĠFri",
        "day"
      ],
      [
        "ĠJan",
        "uary"
      ],
      [
        "ĠPat",
        "na"
      ],
      [
        "ĠSun",
        "day"
      ],
      [
        "Ġimp",
        "rove"
      ],
      [
        "Ġquar",
        "terly"
      ],
      [
        "Ġvar",
        "ieties"
      ],
      [
        "Ġtec",
        "hnolo"
      ],
      [
        "Ġtre",
        "es"
      ],
      [
        "Ġtur",
        "n"
      ],
      [
        "Ġtest",
        "ing"
      ],
      [
        "Ġtell",
        "s"
      ],
      [
        "Ġtim",
        "e"
      ],
      [
        "Ġtak",
        "e"
      ],
      [
        "Ġaver",
        "age"
      ],
      [
        "Ġass",
        "ignmen"
      ],
      [
        "Ġart",
        "ist"
      ],
      [
        "Ġsing",
        "er"
      ],
      [
        "Ġsup",
        "ply"
      ],
      [
        "Ġsign",
        "ificantly"
      ],
      [
        "Ġscient",
        "ist"
      ],
      [
        "Ġsho",
        "ps"
      ],
      [
        "Ġshar",
        "e"
      ],
      [
        "Ġsmart",
        "phone"
      ],
      [
        "Ġsnow",
        "fall"
      ],
      [
        "Ġswee",
        "ts"
      ],
      [
        "Ġsymp",
        "hony"
      ],
      [
        "Ġwal",
        "k"
      ],
      [
        "Ġwatch",
        "ing"
      ],
      [
        "Ġweat",
        "her"
      ],
      [
        "Ġcan",
        "celled"
      ],
      [
        "Ġcou",
        "ld"
      ],
      [
        "Ġcel",
        "ebrated"
      ],
      [
        "Ġcup",
        "s"
      ],
      [
        "Ġcounc",
        "il"
      ],
      [
        "Ġcle",
        "aned"
      ],
      [
        "Ġcric",
        "ket"
      ],
      [
        "Ġcross",
        "ed"
      ],
      [
        "Ġcam",
        "era"
      ],
      [
        "Ġclim",
        "ate"
      ],
      [
        "Ġcycl",
        "ing"
      ],
      [
        "Ġfas",
        "ter"
      ],
      [
        "Ġfir",
        "st"
      ],
      [
        "Ġflo",
        "wers"
      ],
      [
        "Ġfun",
        "ding"
      ],
      [
        "Ġfri",
        "ends"
      ],
      [
        "Ġfac",
        "tory"
      ],
      [
        "Ġfeed",
        "back"
      ],
      [
        "Ġfoot",
        "ball"
      ],
      [
        "Ġnort",
        "hern"
      ],
      [
        "Ġbro",
        "thers"
      ],
      [
        "Ġbel",
        "ow"
      ],
      [
        "Ġmee",
        "ting"
      ],
      [
        "Ġmet",
        "ro"
      ],
      [
        "Ġmur",
        "al"
      ],
      [
        "Ġmill",
        "ion"
      ],
      [
        "Ġmus",
        "t"
      ],
      [
        "Ġmuse",
        "um"
      ],
      [
        "Ġmobil",
        "e"
      ],
      [
        "Ġminut",
        "es"
      ],
      [
        "Ġout",
        "age"
      ],
      [
        "Ġouts",
        "ide"
      ],
      [
        "Ġdat",
        "a"
      ],
      [
        "Ġdec",
        "lared"
      ],
      [
        "Ġdro",
        "pped"
      ],
      [
        "Ġdir",
        "ectly"
      ],
      [
        "Ġdur",
        "ing"
      ],
      [
        "Ġdea",
        "dline"
      ],
      [
        "Ġdos",
        "a"
      ],
      [
        "Ġrec",
        "ommend"
      ],
      [
        "Ġric",
        "e"
      ],
      [
        "Ġrul",
        "es"
      ],
      [
        "Ġrais",
        "ed"
      ],
      [
        "Ġemp",
        "ty"
      ],
      [
        "Ġhir",
        "ing"
      ],
      [
        "Ġhos",
        "pital"
      ],
      [
        "Ġlea",
        "ve"
      ],
      [
        "Ġlong",
        "er"
      ],
      [
        "Ġlevel",
        "s"
      ],
      [
        "Ġpain",
        "ted"
      ],
      [
        "Ġpre",
        "pared"
      ],
      [
        "Ġpric",
        "e"
      ],
      [
        "Ġpol",
        "icy"
      ],
      [
        "Ġpassw",
        "ord"
      ],
      [
        "Ġincre",
        "ased"
      ],
      [
        "Ġtomor",
        "row"
      ],
      [
        "Ġrestor",
        "ed"
      ],
      [
        "Ġresign",
        "ation"
      ],
      [
        "Ġresum",
        "e"
      ],
      [
        "Ġresche",
        "duled"
      ],
      [
        "Ġrestaur",
        "ant"
      ],
      [
        "Ġbeac",
        "h"
      ],
      [
        "Ġcommit",
        "tee"
      ],
      [
        "Ġexhi",
        "bition"
      ],
      [
        "Ġexamp",
        "les"
      ],
      [
        "Ġgover",
        "nment"
      ],
      [
        "Ġgrand",
        "mother"
      ],
      [
        "Ġguit",
        "ar"
      ],
      [
        "Ġattrac",
        "ted"
      ],
      [
        "Ġstudy",
        "ing"
      ],
      [
        "Ġrepair",
        "s"
      ],
      [
        "Ġadvis",
        "ed"
      ],
      [
        "Ġadmis",
        "sions"
      ],
      [
        "Ġalmos",
        "t"
      ],
      [
        "Ġchamp",
        "ionship"
      ],
      [
        "Ġbuild",
        "ing"
      ],
      [
        "Ġvehic",
        "les"
      ],
      [
        "Ġdisrup",
        "ted"
      ],
      [
        "Ġelectron",
        "ics"
      ],
      [
        "Ġintroduc",
        "ed"
      ],
      [
        "Ġexplain",
        "ed"
      ],
      [
        "Inves",
        "tors"
      ],
      [
        "Ġuniversit",
        "y"
      ],
      [
        "Ġwonder",
        "ful"
      ],
      [
        "Ġproduc",
        "es"
      ],
      [
        "Ġdownload",
        "s"
      ],
      [
        "Diwal",
        "i"
      ],
      [
        "Regul",
        "ar"
      ],
      [
        "Researcher",
        "s"
      ],
      [
        "Studen",
        "ts"
      ],
      [
        "Ġorchest",
        "ra"
      ],
      [
        "Ġtechnolo",
        "gy"
      ],
      [
        "Ġassignmen",
        "ts"
      ],
      [
        "¯",
        "à¤¹"
      ],
      [
        "ĩ",
        "à¤¸"
      ],
      [
        "ī",
        "à¤¸"
      ],
      [
        "Ń",
        "à¤Ĺ"
      ],
      [
        "à¤",
        "¶"
      ],
      [
        "à¤",
        "Ŀ"
      ],
      [
        "à¤",
        "ł"
      ],
      [
        "à¤",
        "Ńà¤Ĺ"
      ],
      [
        "à¥",
        "ī"
      ],
      [
        "à¥",
        "Į"
      ],
      [
        "Ġà¤",
        "ļ"
      ],
      [
        "Ġà¤",
        "ł"
      ],
      [
        "Ġà¤",
        "¯à¤¹"
      ],
      [
        "Ġà¤",
        "ĩà¤¸"
      ],
      [
        "à¥ĩ",
        "à¥¤"
      ],
      [
        "à¥Ģ",
        "à¤Ĥ"
      ],
      [
        "à¥ĭ",
        "?"
      ],
      [
        "à¤¹",
        "à¤°"
      ],
      [
        "à¤ķ",
        "à¤¤"
      ],
      [
        "Ġà¤¹",
        "à¤®"
      ],
      [
        "Ġà¤¸",
        "à¤¬"
      ],
      [
        "Ġà¤¸",
        "à¤ķà¤¤"
      ],
      [
        "à¤¤",
        "à¤°"
      ],
      [
        "Ġà¤ª",
        "à¤°"
      ],
      [
        "à¤ľ",
        "à¤¹"
      ],
      [
        "Ġà¤¦",
        "à¤«"
      ],
      [
        "Ġà¤¬",
        "à¤¹"
      ],
      [
        "à¤Ĺ",
        "à¤Ńà¤Ĺ"
      ],
      [
        "Ġà¤ħ",
        "à¤Ĺà¤²"
      ],
      [
        "à¤ĩ",
        "à¤Ł"
      ],
      [
        "à¤ĩ",
        "à¤¸"
      ],
      [
        "Ġà¤¨",
        "à¤¹"
      ],
      [
        "Ġà¤²",
        "à¤Ĺà¤Ńà¤Ĺ"
      ],
      [
        "Ġà¤Ĺ",
        "à¤¯"
      ],
      [
        "Ġà¤Ĺ",
        "à¤Ī"
      ],
      [
        "Ġà¤ķà¤°",
        "à¤¨"
      ],
      [
        "à¥Īà¤Ĥ",
        "à¥¤"
      ],
      [
        "Ġà¤µ",
        "à¤ľà¤¹"
      ],
      [
        "à¤",
        "¢"
      ],
      [
        "à¤",
        "£"
      ],
      [
        "à¤",
        "Ľ"
      ],
      [
        "à¤",
        "īà¤¸"
      ],
      [
        "Ġà¤",
        "īà¤¸"
      ],
      [
        "à¤¾",
        "?"
      ],
      [
        "à¤¾",
        "à¤ģ"
      ],
      [
        "à¤°",
        "à¤¤"
      ],
      [
        "à¥Ģ",
        ","
      ],
      [
        "Ġà¤ķ",
        "à¤²"
      ],
      [
        "Ġà¤ķ",
        "à¤ª"
      ],
      [
        "Ġà¤ķ",
        "à¤µà¤°"
      ],
      [
        "à¤¨",
        "à¤Ł"
      ],
      [
        "à¤¨",
        "à¤Ī"
      ],
      [
        "à¤¨",
        "à¤µà¤°"
      ],
      [
        "à¥ĭ",
        "à¤Ĥ"
      ],
      [
        "à¤²",
        "à¤¤"
      ],
      [
        "à¤¹",
        "à¤®"
      ],
      [
        "à¤ķ",
        "à¤®"
      ],
      [
        "Ġà¤¹",
        "à¤°"
      ],
      [
        "Ġà¤¹",
        "à¤µ"
      ],
      [
        "Ġà¤¹",
        "à¤«"
      ],
      [
        "Ġà¤¸",
        "à¤°"
      ],
      [
        "Ġà¤¸",
        "à¤²"
      ],
      [
        "à¤¤",
        "à¤¨"
      ],
      [
        "à¤®",
        "à¤¤"
      ],
      [
        "à¤®",
        "à¤µ"
      ],
      [
        "Ġà¤ª",
        "à¤Ł"
      ],
      [
        "à¤ľ",
        "à¤¬"
      ],
      [
        "Ġà¤®",
        "à¤¹"
      ],
      [
        "Ġà¤®",
        "à¤¦"
      ],
      [
        "Ġà¤¦",
        "à¤¸"
      ],
      [
        "Ġà¤¬",
        "à¤¨"
      ],
      [
        "Ġà¤¬",
        "à¤Ĺ"
      ],
      [
        "Ġà¤¬",
        "à¤¢"
      ],
      [
        "à¤¸",
        "à¤®"
      ],
      [
        "à¤¸",
        "à¤µà¤°"
      ],
      [
        "à¤ª",
        "à¤°"
      ],
      [
        "à¤¼",
        "à¤¾"
      ],
      [
        "à¤¼",
        "à¥ĭ"
      ],
      [
        "à¤¼",
        "à¤¿"
      ],
      [
        "à¤¦",
        "à¤²"
      ],
      [
        "à¤¬",
        "à¤¹"
      ],
      [
        "à¤¬",
        "à¤ļ"
      ],
      [
        "Ġà¤ħ",
        "à¤¡"
      ],
      [
        "Ġà¤ħ",
        "à¤ļ"
      ],
      [
        "Ġà¤¤",
        "à¤ķ"
      ],
      [
        "à¤ĩ",
        "à¤¨"
      ],
      [
        "à¤ĩ",
        "à¤¬"
      ],
      [
        "Ġà¤¨",
        "à¤¤"
      ],
      [
        "Ġà¤¨",
        "à¤¯"
      ],
      [
        "Ġà¤Ĺ",
        "à¤°"
      ],
      [
        "Ġà¤Ĺ",
        "à¤ı"
      ],
      [
        "Ġà¤ľ",
        "à¤¨à¤µà¤°"
      ],
      [
        "à¤¡",
        "à¤²"
      ],
      [
        "à¥Ĥ",
        "à¤ģ"
      ],
      [
        "Ġà¤ķà¤°",
        "à¤¤"
      ],
      [
        "à¤ĸ",
        "à¤°"
      ],
      [
        "Ġà¤¶",
        "à¤¹à¤°"
      ],
      [
        "Ġà¤Ĩ",
        "à¤ľ"
      ],
      [
        "Ġà¤Ĩ",
        "à¤ł"
      ],
      [
        "Ġà¤Ĩ",
        "à¤®à¤¤"
      ],
      [
        "Ġà¤ĸ",
        "à¤¤"
      ],
      [
        "à¤¶",
        "à¤¨"
      ],
      [
        "à¤ł",
        "à¤ķ"
      ],
      [
        "Ġà¤¸à¤¬",
        "à¤¸"
      ],
      [
        "Ġà¤¬à¤¹",
        "à¤¨"
      ],
      [
        "à¤īà¤¸",
        "à¤¨"
      ],
      [
        "à¤ķà¤®",
        "à¤°"
      ],
      [
        "Ġà¤ªà¤Ł",
        "à¤¨"
      ],
      [
        "Ġà¤®à¤¦",
        "à¤¦"
      ],
      [
        "à¥Ĥà¤ģ",
        "à¥¤"
      ]
    ]
  }
}